<unk>	0
<s>	0
</s>	0
▁t	-0
he	-1
▁a	-2
in	-3
▁the	-4
▁s	-5
▁o	-6
re	-7
▁w	-8
ha	-9
er	-10
nd	-11
is	-12
▁b	-13
it	-14
on	-15
ed	-16
▁c	-17
▁of	-18
▁m	-19
ing	-20
ou	-21
▁f	-22
en	-23
es	-24
▁in	-25
▁p	-26
or	-27
▁to	-28
at	-29
▁and	-30
ll	-31
le	-32
ar	-33
▁d	-34
an	-35
▁h	-36
as	-37
▁n	-38
▁l	-39
hat	-40
om	-41
ic	-42
ly	-43
▁th	-44
ow	-45
ut	-46
▁be	-47
▁e	-48
▁ha	-49
st	-50
▁that	-51
▁I	-52
▁he	-53
im	-54
al	-55
se	-56
▁g	-57
▁u	-58
ot	-59
▁it	-60
ent	-61
ion	-62
▁on	-63
ve	-64
ld	-65
gh	-66
ver	-67
ce	-68
▁re	-69
▁y	-70
▁his	-71
id	-72
▁is	-73
▁st	-74
ch	-75
▁as	-76
ro	-77
ith	-78
▁se	-79
ay	-80
▁wh	-81
▁T	-82
ir	-83
▁for	-84
▁with	-85
ct	-86
ur	-87
et	-88
ad	-89
▁an	-90
ain	-91
if	-92
▁A	-93
▁was	-94
▁“	-95
▁S	-96
▁su	-97
ght	-98
her	-99
il	-100
ore	-101
▁we	-102
ck	-103
▁all	-104
▁not	-105
ke	-106
ri	-107
▁at	-108
ra	-109
▁this	-110
ess	-111
ter	-112
▁you	-113
▁con	-114
oo	-115
am	-116
▁so	-117
qu	-118
▁by	-119
all	-120
ous	-121
ill	-122
rom	-123
▁B	-124
▁sh	-125
▁de	-126
ul	-127
▁wha	-128
▁The	-129
pe	-130
▁him	-131
▁from	-132
▁up	-133
▁me	-134
ble	-135
▁or	-136
▁but	-137
▁W	-138
▁v	-139
ome	-140
ast	-141
ould	-142
ation	-143
▁C	-144
ight	-145
ge	-146
ich	-147
and	-148
est	-149
em	-150
▁un	-151
▁which	-152
ip	-153
▁P	-154
ard	-155
art	-156
▁whe	-157
▁have	-158
pt	-159
red	-160
▁ne	-161
▁whale	-162
▁int	-163
▁ex	-164
▁le	-165
res	-166
▁one	-167
ong	-168
ant	-169
▁r	-170
um	-171
per	-172
▁had	-173
ist	-174
▁al	-175
out	-176
▁are	-177
▁li	-178
▁my	-179
▁there	-180
ol	-181
▁H	-182
▁sa	-183
od	-184
ound	-185
us	-186
ther	-187
▁com	-188
▁man	-189
ost	-190
ers	-191
un	-192
pp	-193
▁F	-194
▁pro	-195
ough	-196
ort	-197
han	-198
ust	-199
▁were	-200
ose	-201
▁some	-202
very	-203
▁But	-204
▁wor	-205
ak	-206
▁N	-207
sel	-208
▁k	-209
▁their	-210
ci	-211
reat	-212
el	-213
os	-214
▁they	-215
own	-216
▁now	-217
ate	-218
▁im	-219
la	-220
▁bo	-221
▁out	-222
▁then	-223
ity	-224
▁no	-225
▁them	-226
ive	-227
▁do	-228
ig	-229
ally	-230
ind	-231
▁j	-232
ect	-233
▁sp	-234
▁G	-235
able	-236
▁upon	-237
iv	-238
▁St	-239
th	-240
▁fe	-241
▁ag	-242
ies	-243
ide	-244
▁other	-245
▁M	-246
▁D	-247
▁ye	-248
▁if	-249
▁ab	-250
▁L	-251
▁more	-252
ood	-253
ook	-254
▁when	-255
one	-256
▁into	-257
ie	-258
ame	-259
ud	-260
▁who	-261
nt	-262
ue	-263
▁such	-264
▁would	-265
▁like	-266
▁ship	-267
▁any	-268
▁tr	-269
ish	-270
.”	-271
▁what	-272
▁co	-273
ance	-274
▁over	-275
▁tim	-276
aly	-277
ag	-278
ine	-279
ure	-280
▁will	-281
▁1	-282
▁been	-283
les	-284
▁can	-285
▁ca	-286
ff	-287
fore	-288
nder	-289
▁seem	-290
hed	-291
hab	-292
▁imp	-293
self	-294
ical	-295
ite	-296
▁kn	-297
ac	-298
ment	-299
sy	-300
▁these	-301
ub	-302
ings	-303
▁qu	-304
og	-305
our	-306
▁Ahab	-307
▁only	-308
▁its	-309
ree	-310
▁ar	-311
ated	-312
▁O	-313
ber	-314
uck	-315
▁(	-316
ted	-317
▁dis	-318
ions	-319
lo	-320
▁per	-321
ven	-322
▁fa	-323
eg	-324
sych	-325
ake	-326
ious	-327
cc	-328
ks	-329
ere	-330
ull	-331
▁part	-332
▁comp	-333
▁old	-334
equ	-335
▁ro	-336
▁It	-337
ell	-338
▁again	-339
▁har	-340
▁go	-341
▁tw	-342
ile	-343
▁thou	-344
way	-345
▁us	-346
ence	-347
▁sha	-348
▁boat	-349
ward	-350
ars	-351
▁hand	-352
▁has	-353
▁str	-354
ack	-355
ass	-356
▁sea	-357
orm	-358
▁cont	-359
age	-360
▁po	-361
▁may	-362
ild	-363
wn	-364
ep	-365
▁en	-366
▁am	-367
▁her	-368
▁time	-369
ness	-370
▁af	-371
▁sw	-372
▁psych	-373
▁E	-374
hing	-375
ick	-376
ning	-377
ling	-378
▁long	-379
▁pre	-380
▁down	-381
less	-382
ject	-383
▁than	-384
itt	-385
▁In	-386
▁very	-387
ces	-388
▁great	-389
sis	-390
▁ad	-391
ire	-392
,”	-393
▁pl	-394
ise	-395
▁ch	-396
▁ob	-397
uch	-398
▁Th	-399
▁thr	-400
ans	-401
ving	-402
▁ho	-403
ab	-404
▁head	-405
po	-406
▁must	-407
ife	-408
▁And	-409
▁how	-410
▁our	-411
ord	-412
▁Wha	-413
▁most	-414
te	-415
▁your	-416
▁ind	-417
▁bl	-418
▁about	-419
▁say	-420
ts	-421
the	-422
▁way	-423
▁wat	-424
▁those	-425
ach	-426
ptain	-427
▁still	-428
ath	-429
tain	-430
ress	-431
ary	-432
▁off	-433
li	-434
▁before	-435
▁see	-436
▁res	-437
ations	-438
▁fir	-439
ons	-440
ever	-441
▁after	-442
!”	-443
led	-444
ves	-445
▁though	-446
man	-447
▁cha	-448
▁cl	-449
▁spe	-450
ount	-451
ved	-452
iz	-453
▁said	-454
ps	-455
ark	-456
ced	-457
ink	-458
▁gr	-459
▁here	-460
alysis	-461
ry	-462
ye	-463
▁two	-464
▁own	-465
▁rem	-466
▁br	-467
▁Whale	-468
TE	-469
▁R	-470
▁did	-471
▁every	-472
urn	-473
▁yet	-474
ft	-475
ade	-476
ual	-477
▁last	-478
▁look	-479
▁cons	-480
HA	-481
▁sm	-482
?”	-483
oan	-484
▁sc	-485
▁sub	-486
▁seemed	-487
ubb	-488
ible	-489
▁under	-490
▁could	-491
▁where	-492
▁J	-493
ful	-494
ory	-495
▁first	-496
▁Q	-497
▁too	-498
ows	-499
▁sail	-500
▁fl	-501
▁life	-502
TER	-503
co	-504
arb	-505
▁inc	-506
▁should	-507
ap	-508
HAP	-509
ittle	-510
▁CHAP	-511
▁CHAPTER	-512
ng	-513
▁being	-514
▁never	-515
▁pe	-516
▁app	-517
ail	-518
ice	-519
oss	-520
▁ri	-521
▁little	-522
▁He	-523
▁day	-524
▁fo	-525
most	-526
▁bet	-527
▁mat	-528
▁inst	-529
▁much	-530
ient	-531
perm	-532
hy	-533
op	-534
▁through	-535
ried	-536
▁bec	-537
ign	-538
▁acc	-539
we	-540
▁des	-541
ens	-542
ition	-543
▁psychoan	-544
▁Y	-545
▁same	-546
▁round	-547
▁pr	-548
▁cas	-549
▁men	-550
▁even	-551
▁might	-552
rew	-553
▁dist	-554
▁Stubb	-555
▁rep	-556
▁pres	-557
omet	-558
▁inf	-559
▁work	-560
oy	-561
▁Ca	-562
so	-563
equeg	-564
ueequeg	-565
▁sl	-566
ian	-567
men	-568
▁know	-569
iff	-570
ors	-571
ib	-572
▁while	-573
▁cr	-574
▁There	-575
▁side	-576
▁harpo	-577
int	-578
olog	-579
ular	-580
▁.	-581
▁inter	-582
▁,	-583
▁three	-584
▁whales	-585
ial	-586
ather	-587
pect	-588
▁gl	-589
▁ra	-590
▁somet	-591
au	-592
ang	-593
are	-594
ern	-595
▁made	-596
▁For	-597
▁Queequeg	-598
▁te	-599
▁ke	-600
ener	-601
▁far	-602
▁pla	-603
ily	-604
ract	-605
other	-606
▁ever	-607
▁lo	-608
llow	-609
▁himself	-610
ied	-611
lic	-612
▁conver	-613
▁U	-614
▁back	-615
▁world	-616
▁thought	-617
aw	-618
head	-619
wards	-620
▁well	-621
berg	-622
ating	-623
gg	-624
▁call	-625
ertain	-626
▁pat	-627
▁exp	-628
▁stand	-629
▁without	-630
ty	-631
igh	-632
▁ent	-633
▁comm	-634
▁good	-635
ms	-636
▁bot	-637
▁conc	-638
ince	-639
ting	-640
▁end	-641
aking	-642
▁[	-643
gin	-644
▁water	-645
▁psychoanalysis	-646
▁em	-647
ific	-648
▁Captain	-649
here	-650
▁bel	-651
▁Pro	-652
▁ass	-653
▁almost	-654
▁As	-655
▁car	-656
▁thing	-657
arbuck	-658
ges	-659
ren	-660
▁inv	-661
orn	-662
▁ter	-663
▁many	-664
uten	-665
ween	-666
ances	-667
cious	-668
hen	-669
hes	-670
ered	-671
▁act	-672
▁att	-673
lf	-674
▁ste	-675
▁This	-676
▁Starbuck	-677
▁between	-678
▁If	-679
ering	-680
orem	-681
▁she	-682
▁fact	-683
utenberg	-684
als	-685
▁sur	-686
ult	-687
▁away	-688
▁full	-689
▁certain	-690
▁patient	-691
ody	-692
rib	-693
▁deck	-694
▁diff	-695
▁gener	-696
ents	-697
read	-698
▁once	-699
▁sou	-700
▁just	-701
▁pass	-702
▁against	-703
▁2	-704
▁Wh	-705
▁among	-706
not	-707
ung	-708
equod	-709
▁turn	-710
▁Pequod	-711
▁each	-712
▁sort	-713
▁found	-714
mer	-715
yes	-716
ates	-717
▁child	-718
ict	-719
ex	-720
▁reg	-721
iform	-722
▁poss	-723
▁white	-724
den	-725
▁dra	-726
▁ins	-727
ently	-728
der	-729
▁So	-730
cess	-731
▁whole	-732
ros	-733
▁op	-734
land	-735
▁make	-736
▁tell	-737
▁Gutenberg	-738
av	-739
▁1.	-740
▁let	-741
▁sex	-742
▁come	-743
▁seen	-744
ah	-745
irc	-746
▁wo	-747
ures	-748
ways	-749
▁also	-750
by	-751
▁V	-752
ped	-753
▁mar	-754
▁nat	-755
▁eyes	-756
▁wind	-757
ix	-758
ream	-759
▁Now	-760
▁pur	-761
▁Project	-762
act	-763
▁cur	-764
▁lay	-765
▁fore	-766
▁small	-767
ru	-768
ower	-769
▁soon	-770
▁light	-771
vi	-772
▁supp	-773
▁think	-774
▁things	-775
ched	-776
▁soul	-777
end	-778
▁crew	-779
▁night	-780
ace	-781
▁sun	-782
▁land	-783
ange	-784
cept	-785
ained	-786
▁came	-787
hys	-788
lack	-789
▁ele	-790
▁hum	-791
▁circ	-792
med	-793
▁heart	-794
ask	-795
▁ap	-796
▁sk	-797
▁bro	-798
▁hold	-799
▁cried	-800
▁something	-801
oub	-802
▁leg	-803
▁contin	-804
▁mon	-805
▁set	-806
▁years	-807
!—	-808
ene	-809
ple	-810
▁ga	-811
▁air	-812
▁mom	-813
▁take	-814
▁along	-815
▁uniform	-816
ew	-817
und	-818
nce	-819
▁present	-820
ause	-821
king	-822
ching	-823
ucket	-824
▁does	-825
▁Sperm	-826
▁another	-827
ash	-828
cul	-829
eth	-830
▁case	-831
▁cour	-832
▁shar	-833
▁boats	-834
▁nothing	-835
ason	-836
ense	-837
ters	-838
▁don	-839
ished	-840
▁place	-841
uous	-842
ove	-843
ute	-844
ited	-845
▁cor	-846
▁hel	-847
▁sir	-848
▁sle	-849
▁phys	-850
lud	-851
▁ev	-852
▁rec	-853
▁both	-854
cy	-855
sh	-856
▁What	-857
▁feel	-858
erv	-859
▁new	-860
▁pers	-861
▁hands	-862
▁right	-863
aring	-864
▁half	-865
ne	-866
▁wr	-867
cing	-868
ying	-869
ction	-870
right	-871
▁ir	-872
ually	-873
▁hard	-874
▁comple	-875
ened	-876
ret	-877
▁sy	-878
▁get	-879
▁sim	-880
▁till	-881
▁word	-882
▁gra	-883
▁read	-884
▁thus	-885
▁itself	-886
▁moment	-887
▁uniformly	-888
ock	-889
ides	-890
▁med	-891
▁differe	-892
arn	-893
tern	-894
▁How	-895
▁ext	-896
▁rel	-897
▁mind	-898
▁towards	-899
▁harpoone	-900
▁converges	-901
▁At	-902
▁pa	-903
itud	-904
▁fur	-905
▁lar	-906
▁obs	-907
▁thy	-908
▁thee	-909
▁treat	-910
▁cra	-911
ingly	-912
ology	-913
▁chan	-914
▁feet	-915
▁consid	-916
bo	-917
ho	-918
ically	-919
▁captain	-920
ef	-921
ield	-922
velo	-923
▁God	-924
▁che	-925
ities	-926
▁body	-927
▁times	-928
▁course	-929
▁strange	-930
sed	-931
▁wa	-932
akes	-933
▁fin	-934
iness	-935
ither	-936
▁line	-937
▁mast	-938
▁point	-939
▁called	-940
▁follow	-941
its	-942
ron	-943
ten	-944
athan	-945
▁high	-946
▁always	-947
▁import	-948
antucket	-949
▁lat	-950
eng	-951
ster	-952
▁adv	-953
▁giv	-954
▁ref	-955
▁unc	-956
selves	-957
▁black	-958
viathan	-959
iar	-960
▁To	-961
▁eye	-962
▁sight	-963
▁sperm	-964
▁Nantucket	-965
ged	-966
ool	-967
uth	-968
▁sn	-969
ured	-970
▁conf	-971
▁shall	-972
▁cannot	-973
go	-974
uff	-975
▁saw	-976
▁dead	-977
▁analy	-978
It	-979
ane	-980
eed	-981
ken	-982
▁el	-983
ceed	-984
▁fish	-985
▁form	-986
▁rest	-987
▁matter	-988
gan	-989
pend	-990
▁heard	-991
▁seems	-992
▁trans	-993
▁ac	-994
ank	-995
▁cle	-996
▁dec	-997
▁occ	-998
▁put	-999
),	-1000
TM	-1001
The	-1002
ably	-1003
▁main	-1004
▁few	-1005
▁tra	-1006
ising	-1007
▁whaling	-1008
ien	-1009
iew	-1010
▁Fl	-1011
ains	-1012
haps	-1013
▁dev	-1014
▁voy	-1015
▁appe	-1016
▁find	-1017
▁prof	-1018
▁general	-1019
▁GutenbergTM	-1020
tle	-1021
▁hea	-1022
ether	-1023
ments	-1024
▁stri	-1025
estion	-1026
▁however	-1027
bin	-1028
outh	-1029
isher	-1030
▁dire	-1031
▁face	-1032
▁ment	-1033
▁dream	-1034
▁whether	-1035
▁Un	-1036
▁nor	-1037
▁num	-1038
▁sign	-1039
▁creat	-1040
▁since	-1041
▁because	-1042
arly	-1043
ided	-1044
owed	-1045
▁cop	-1046
▁hor	-1047
▁tou	-1048
▁war	-1049
▁disc	-1050
▁whose	-1051
ared	-1052
ived	-1053
▁cond	-1054
▁doub	-1055
▁mean	-1056
▁roll	-1057
icular	-1058
▁sexual	-1059
▁aff	-1060
▁run	-1061
eness	-1062
▁dark	-1063
▁Flask	-1064
▁young	-1065
▁3	-1066
ner	-1067
▁We	-1068
dden	-1069
like	-1070
▁eas	-1071
▁poor	-1072
▁went	-1073
mit	-1074
▁hy	-1075
ized	-1076
reen	-1077
▁bre	-1078
▁sci	-1079
▁swe	-1080
▁open	-1081
▁prev	-1082
▁reason	-1083
ia	-1084
pl	-1085
▁jo	-1086
imes	-1087
▁You	-1088
▁bur	-1089
▁hat	-1090
uring	-1091
▁wild	-1092
,—	-1093
be	-1094
ier	-1095
ked	-1096
▁vis	-1097
ative	-1098
stand	-1099
▁bene	-1100
▁view	-1101
du	-1102
▁es	-1103
cond	-1104
▁exc	-1105
▁leng	-1106
▁instant	-1107
iss	-1108
▁Le	-1109
aken	-1110
▁def	-1111
arted	-1112
thing	-1113
▁stra	-1114
▁known	-1115
▁speci	-1116
▁enough	-1117
▁myself	-1118
▁physic	-1119
▁Theorem	-1120
ross	-1121
▁sat	-1122
culiar	-1123
▁exper	-1124
▁develo	-1125
▁length	-1126
▁peculiar	-1127
▁different	-1128
egr	-1129
mon	-1130
ists	-1131
▁large	-1132
▁sudden	-1133
▁perhaps	-1134
lin	-1135
rem	-1136
ring	-1137
▁cal	-1138
▁ret	-1139
aining	-1140
▁subject	-1141
ump	-1142
pped	-1143
▁arm	-1144
▁bed	-1145
▁mid	-1146
▁give	-1147
▁true	-1148
▁rather	-1149
ale	-1150
ets	-1151
har	-1152
▁Se	-1153
iver	-1154
ople	-1155
▁Jon	-1156
erest	-1157
▁going	-1158
▁spout	-1159
▁consider	-1160
oun	-1161
▁law	-1162
▁lea	-1163
▁keep	-1164
▁left	-1165
▁plain	-1166
▁within	-1167
bs	-1168
▁mo	-1169
lies	-1170
▁add	-1171
▁hun	-1172
▁ser	-1173
▁That	-1174
▁best	-1175
▁pract	-1176
▁person	-1177
▁analysis	-1178
ief	-1179
tom	-1180
ages	-1181
wise	-1182
▁ori	-1183
▁deep	-1184
▁count	-1185
▁works	-1186
▁object	-1187
▁themselves	-1188
ural	-1189
▁mor	-1190
▁oil	-1191
▁days	-1192
▁need	-1193
▁White	-1194
▁short	-1195
▁sleep	-1196
▁stood	-1197
▁super	-1198
▁entire	-1199
▁fisher	-1200
▁voyage	-1201
▁further	-1202
su	-1203
ught	-1204
▁cut	-1205
▁sec	-1206
▁sing	-1207
iously	-1208
▁often	-1209
▁indeed	-1210
ase	-1211
▁No	-1212
anger	-1213
▁Then	-1214
▁done	-1215
▁name	-1216
▁disco	-1217
wh	-1218
chan	-1219
lish	-1220
▁dro	-1221
▁eff	-1222
▁ere	-1223
▁sym	-1224
▁seas	-1225
▁sound	-1226
▁complete	-1227
ele	-1228
▁Oh	-1229
that	-1230
wing	-1231
▁jaw	-1232
▁low	-1233
▁sil	-1234
▁hour	-1235
▁mere	-1236
▁least	-1237
▁people	-1238
ls	-1239
▁—	-1240
oby	-1241
ric	-1242
▁An	-1243
ards	-1244
arth	-1245
▁art	-1246
▁bus	-1247
▁ham	-1248
ached	-1249
nding	-1250
ought	-1251
▁They	-1252
▁four	-1253
▁suff	-1254
▁order	-1255
ression	-1256
▁origin	-1257
▁harpoon	-1258
▁particular	-1259
ift	-1260
ime	-1261
oud	-1262
iled	-1263
▁fam	-1264
▁flo	-1265
ality	-1266
itude	-1267
tical	-1268
▁Dick	-1269
▁tail	-1270
▁close	-1271
▁interest	-1272
▁sometimes	-1273
how	-1274
ird	-1275
form	-1276
ised	-1277
ping	-1278
▁Eng	-1279
▁Nor	-1280
▁par	-1281
▁iron	-1282
▁Jonah	-1283
▁cabin	-1284
▁circum	-1285
▁necess	-1286
▁command	-1287
▁possible	-1288
▁question	-1289
ph	-1290
▁’	-1291
ins	-1292
ians	-1293
▁Ind	-1294
▁oce	-1295
▁live	-1296
▁begin	-1297
▁const	-1298
▁means	-1299
▁account	-1300
ses	-1301
cise	-1302
▁und	-1303
ately	-1304
inted	-1305
▁char	-1306
▁desc	-1307
▁free	-1308
▁purp	-1309
▁living	-1310
▁neu	-1311
illed	-1312
owing	-1313
▁less	-1314
▁assum	-1315
▁treatment	-1316
ilt	-1317
inct	-1318
ship	-1319
▁why	-1320
ident	-1321
▁Moby	-1322
▁rece	-1323
▁board	-1324
▁second	-1325
▁strong	-1326
lu	-1327
to	-1328
up	-1329
ze	-1330
—“	-1331
ieve	-1332
▁boy	-1333
▁use	-1334
▁else	-1335
▁sure	-1336
ressed	-1337
▁death	-1338
ils	-1339
kes	-1340
ont	-1341
▁Ch	-1342
enty	-1343
▁bul	-1344
▁When	-1345
▁stud	-1346
itions	-1347
▁proper	-1348
onscious	-1349
▁4	-1350
▁ed	-1351
ivid	-1352
ixed	-1353
▁opp	-1354
▁squ	-1355
▁ves	-1356
ement	-1357
ildad	-1358
▁fire	-1359
▁want	-1360
▁ships	-1361
▁turned	-1362
▁develop	-1363
▁standing	-1364
▁Therefore	-1365
▁therefore	-1366
?—	-1367
▁On	-1368
ined	-1369
▁fear	-1370
▁mark	-1371
▁Since	-1372
▁parts	-1373
▁having	-1374
▁number	-1375
▁vessel	-1376
▁beneath	-1377
▁Leviathan	-1378
▁harpooneer	-1379
air	-1380
▁Be	-1381
ches	-1382
eleg	-1383
▁bra	-1384
▁fri	-1385
▁lad	-1386
▁tog	-1387
▁forth	-1388
▁mouth	-1389
▁Bildad	-1390
▁direct	-1391
▁integr	-1392
▁regard	-1393
▁implies	-1394
▁together	-1395
ler	-1396
▁By	-1397
▁Mr	-1398
osed	-1399
ully	-1400
▁det	-1401
▁mag	-1402
▁val	-1403
▁ver	-1404
pping	-1405
ribut	-1406
▁cent	-1407
▁happ	-1408
▁hear	-1409
▁vast	-1410
erence	-1411
▁blood	-1412
▁subst	-1413
ological	-1414
of	-1415
lly	-1416
▁Ar	-1417
▁vo	-1418
ones	-1419
▁equ	-1420
▁smo	-1421
▁var	-1422
▁fast	-1423
▁prov	-1424
ousand	-1425
theless	-1426
▁thousand	-1427
let	-1428
ond	-1429
org	-1430
par	-1431
▁aw	-1432
empt	-1433
nded	-1434
what	-1435
▁bow	-1436
▁mot	-1437
ility	-1438
where	-1439
▁book	-1440
▁gent	-1441
▁Peleg	-1442
00	-1443
:1	-1444
xt	-1445
cks	-1446
▁dr	-1447
▁gu	-1448
What	-1449
ines	-1450
▁Pip	-1451
▁ple	-1452
▁sav	-1453
▁sol	-1454
▁sus	-1455
▁kind	-1456
▁mate	-1457
▁stre	-1458
▁wood	-1459
▁taken	-1460
▁common	-1461
▁interv	-1462
▁continuous	-1463
▁understand	-1464
pr	-1465
ug	-1466
ming	-1467
▁hyp	-1468
▁play	-1469
urning	-1470
▁given	-1471
▁quite	-1472
▁respect	-1473
▁business	-1474
▁whalemen	-1475
▁ph	-1476
pers	-1477
rous	-1478
▁Not	-1479
▁ide	-1480
meric	-1481
▁help	-1482
▁near	-1483
▁pull	-1484
ection	-1485
▁elect	-1486
▁ocean	-1487
▁speak	-1488
▁better	-1489
▁wonder	-1490
).	-1491
;—	-1492
kn	-1493
arr	-1494
iet	-1495
iter	-1496
▁With	-1497
▁home	-1498
▁port	-1499
▁used	-1500
▁earth	-1501
▁Americ	-1502
▁gentle	-1503
▁looked	-1504
▁nature	-1505
▁morning	-1506
de	-1507
ma	-1508
▁fre	-1509
▁top	-1510
fully	-1511
ified	-1512
▁copy	-1513
▁expl	-1514
▁oars	-1515
▁prop	-1516
ession	-1517
tering	-1518
▁influ	-1519
▁yield	-1520
▁waters	-1521
▁important	-1522
ries	-1523
▁All	-1524
▁Let	-1525
▁enc	-1526
ously	-1527
▁neur	-1528
▁seam	-1529
▁whom	-1530
▁human	-1531
▁start	-1532
▁ground	-1533
▁However	-1534
▁process	-1535
mb	-1536
ert	-1537
oms	-1538
umb	-1539
▁ut	-1540
ises	-1541
lied	-1542
peci	-1543
▁dep	-1544
▁dri	-1545
▁lim	-1546
▁mad	-1547
▁mod	-1548
▁uns	-1549
▁bows	-1550
▁exam	-1551
▁reve	-1552
▁began	-1553
▁become	-1554
▁purpose	-1555
▁circumst	-1556
ote	-1557
ouse	-1558
▁mer	-1559
▁min	-1560
▁pri	-1561
ected	-1562
▁gone	-1563
▁doubt	-1564
▁power	-1565
▁terms	-1566
▁invest	-1567
lus	-1568
rect	-1569
▁cat	-1570
▁emp	-1571
antic	-1572
▁auth	-1573
▁hund	-1574
▁show	-1575
▁took	-1576
▁broad	-1577
▁comes	-1578
pecially	-1579
▁hundred	-1580
ee	-1581
▁5	-1582
elt	-1583
ize	-1584
otic	-1585
pent	-1586
▁abs	-1587
▁beh	-1588
▁dam	-1589
▁den	-1590
▁mil	-1591
▁mis	-1592
isted	-1593
▁care	-1594
▁terr	-1595
▁lower	-1596
▁quick	-1597
▁friend	-1598
▁includ	-1599
▁English	-1600
▁straight	-1601
▁psychoanaly	-1602
8.	-1603
iod	-1604
ior	-1605
urb	-1606
▁His	-1607
▁ord	-1608
▁pit	-1609
▁pub	-1610
iding	-1611
ioned	-1612
ready	-1613
ronic	-1614
▁easy	-1615
▁cases	-1616
theorem	-1617
▁bottom	-1618
▁heaven	-1619
▁period	-1620
▁taking	-1621
ti	-1622
uc	-1623
but	-1624
day	-1625
▁De	-1626
ored	-1627
ults	-1628
▁fun	-1629
▁mort	-1630
▁slow	-1631
▁told	-1632
▁wond	-1633
▁really	-1634
mp	-1635
agg	-1636
any	-1637
ego	-1638
ike	-1639
▁19	-1640
▁ta	-1641
ibly	-1642
side	-1643
▁fan	-1644
iting	-1645
lying	-1646
▁Here	-1647
▁Tash	-1648
▁meth	-1649
▁swim	-1650
▁contr	-1651
▁heads	-1652
▁behind	-1653
▁chance	-1654
▁analyst	-1655
gr	-1656
bre	-1657
ead	-1658
ery	-1659
ots	-1660
▁18	-1661
▁la	-1662
lled	-1663
oose	-1664
▁aye	-1665
▁dem	-1666
▁mur	-1667
▁sit	-1668
▁try	-1669
asure	-1670
ience	-1671
▁From	-1672
▁calm	-1673
▁goes	-1674
▁prom	-1675
▁spir	-1676
▁learn	-1677
▁sever	-1678
▁state	-1679
▁belong	-1680
▁individ	-1681
▁special	-1682
▁children	-1683
▁neurotic	-1684
els	-1685
ism	-1686
oft	-1687
pit	-1688
que	-1689
▁Me	-1690
ives	-1691
▁ans	-1692
▁ast	-1693
arent	-1694
light	-1695
▁fair	-1696
▁fine	-1697
▁gold	-1698
▁hope	-1699
▁plan	-1700
▁real	-1701
▁wide	-1702
esides	-1703
▁above	-1704
▁chase	-1705
▁devil	-1706
▁grand	-1707
▁obser	-1708
▁offic	-1709
▁Indian	-1710
▁during	-1711
▁making	-1712
▁looking	-1713
▁especially	-1714
▁individual	-1715
dle	-1716
tic	-1717
use	-1718
yed	-1719
sequ	-1720
▁emb	-1721
▁hon	-1722
▁six	-1723
ivory	-1724
▁Thus	-1725
▁coll	-1726
▁green	-1727
▁mount	-1728
▁aspect	-1729
▁charact	-1730
▁science	-1731
▁several	-1732
▁suppose	-1733
▁development	-1734
.—	-1735
17	-1736
Aye	-1737
▁Is	-1738
▁Of	-1739
▁ma	-1740
ints	-1741
tego	-1742
▁col	-1743
▁red	-1744
tered	-1745
▁dest	-1746
▁lost	-1747
▁mass	-1748
▁quar	-1749
ention	-1750
▁chief	-1751
▁curious	-1752
▁anything	-1753
Th	-1754
oes	-1755
hold	-1756
ires	-1757
line	-1758
▁New	-1759
▁der	-1760
▁fle	-1761
▁flu	-1762
▁que	-1763
▁spr	-1764
▁tal	-1765
▁unt	-1766
ature	-1767
iling	-1768
vered	-1769
▁cast	-1770
▁lean	-1771
▁requ	-1772
▁soci	-1773
▁Right	-1774
▁break	-1775
▁ivory	-1776
▁stern	-1777
▁accord	-1778
▁interp	-1779
▁method	-1780
▁brought	-1781
▁Tashtego	-1782
▁electronic	-1783
▁harpooneers	-1784
OR	-1785
no	-1786
tt	-1787
emp	-1788
xts	-1789
body	-1790
exer	-1791
ffin	-1792
gged	-1793
ging	-1794
▁spo	-1795
under	-1796
▁Such	-1797
▁next	-1798
icient	-1799
▁below	-1800
▁clear	-1801
▁craft	-1802
▁makes	-1803
▁story	-1804
▁watch	-1805
▁either	-1806
▁fellow	-1807
▁manner	-1808
▁mental	-1809
▁already	-1810
▁concern	-1811
▁medical	-1812
▁turning	-1813
▁suddenly	-1814
▁whatever	-1815
▁character	-1816
inc	-1817
ipe	-1818
▁Al	-1819
ants	-1820
hood	-1821
ired	-1822
laim	-1823
▁fif	-1824
▁imm	-1825
▁felt	-1826
▁hist	-1827
▁magn	-1828
▁pict	-1829
▁succ	-1830
itting	-1831
▁aloft	-1832
▁alone	-1833
▁bound	-1834
▁produ	-1835
▁sharp	-1836
▁broken	-1837
▁coming	-1838
▁savage	-1839
▁correct	-1840
▁forward	-1841
▁various	-1842
▁thoughts	-1843
▁physician	-1844
//	-1845
3.	-1846
://	-1847
old	-1848
war	-1849
▁Af	-1850
▁ur	-1851
aint	-1852
cked	-1853
itut	-1854
omen	-1855
ttps	-1856
▁Per	-1857
▁cru	-1858
▁sum	-1859
board	-1860
ories	-1861
roper	-1862
▁conn	-1863
▁gave	-1864
▁kept	-1865
▁knew	-1866
▁rope	-1867
▁occas	-1868
▁prove	-1869
▁became	-1870
▁expect	-1871
▁inform	-1872
▁slight	-1873
▁believe	-1874
▁fishery	-1875
▁natural	-1876
▁following	-1877
▁completely	-1878
▁importance	-1879
ats	-1880
rop	-1881
▁Tr	-1882
ades	-1883
fort	-1884
page	-1885
▁cry	-1886
▁deg	-1887
▁fro	-1888
▁god	-1889
▁got	-1890
aster	-1891
eless	-1892
erial	-1893
ively	-1894
rench	-1895
▁fell	-1896
▁love	-1897
▁mist	-1898
penter	-1899
▁Found	-1900
▁https	-1901
▁organ	-1902
▁outer	-1903
▁pursu	-1904
▁swift	-1905
▁sympt	-1906
osition	-1907
▁author	-1908
▁father	-1909
▁others	-1910
▁proble	-1911
▁regular	-1912
▁sailors	-1913
▁influence	-1914
▁Foundation	-1915
32	-1916
▁6	-1917
amp	-1918
oth	-1919
▁av	-1920
ased	-1921
cast	-1922
inks	-1923
zing	-1924
▁Ger	-1925
▁Yet	-1926
▁lee	-1927
▁mut	-1928
▁pol	-1929
▁rus	-1930
▁tos	-1931
arily	-1932
gging	-1933
texts	-1934
▁hamm	-1935
▁mine	-1936
▁surf	-1937
ctions	-1938
▁breat	-1939
▁emplo	-1940
▁fixed	-1941
▁frequ	-1942
▁waves	-1943
istance	-1944
▁return	-1945
▁sailor	-1946
▁slowly	-1947
▁proceed	-1948
▁conscious	-1949
pid	-1950
wer	-1951
ames	-1952
cies	-1953
ilar	-1954
mast	-1955
math	-1956
▁bar	-1957
▁ess	-1958
▁est	-1959
▁glo	-1960
▁sch	-1961
▁ten	-1962
heads	-1963
ledge	-1964
libre	-1965
▁agre	-1966
▁cook	-1967
▁heav	-1968
▁repe	-1969
aching	-1970
▁early	-1971
▁stead	-1972
▁thick	-1973
▁appear	-1974
▁sharks	-1975
▁single	-1976
▁precise	-1977
▁material	-1978
▁stranger	-1979
libretexts	-1980
ays	-1981
isf	-1982
ogn	-1983
▁ru	-1984
rist	-1985
soci	-1986
used	-1987
▁Con	-1988
▁bat	-1989
▁fat	-1990
▁ign	-1991
▁ill	-1992
ences	-1993
ening	-1994
inary	-1995
ption	-1996
▁lead	-1997
▁mild	-1998
▁shad	-1999
▁wall	-2000
erning	-2001
ervous	-2002
▁Psych	-2003
▁carry	-2004
▁ready	-2005
inition	-2006
▁mighty	-2007
▁passed	-2008
▁psychology	-2009
2.	-2010
gy	-2011
▁8	-2012
bid	-2013
eel	-2014
reg	-2015
vel	-2016
ency	-2017
oard	-2018
oman	-2019
over	-2020
▁Fre	-2021
roses	-2022
▁chap	-2023
▁door	-2024
▁forg	-2025
▁sent	-2026
▁soft	-2027
ancing	-2028
▁later	-2029
▁manif	-2030
▁teeth	-2031
▁voice	-2032
▁Though	-2033
▁observ	-2034
▁experien	-2035
▁touching	-2036
..	-2037
1.	-2038
ca	-2039
sp	-2040
▁7	-2041
ned	-2042
omp	-2043
▁fr	-2044
▁Par	-2045
▁alt	-2046
▁dim	-2047
▁div	-2048
▁hur	-2049
▁pen	-2050
olute	-2051
▁barb	-2052
▁foot	-2053
▁fres	-2054
▁room	-2055
▁says	-2056
▁tend	-2057
tained	-2058
▁bones	-2059
▁marin	-2060
▁applic	-2061
▁dreams	-2062
▁struck	-2063
▁conclud	-2064
▁disturb	-2065
▁monster	-2066
▁remained	-2067
▁leviathan	-2068
▁physicians	-2069
4.	-2070
IL	-2071
cr	-2072
eq	-2073
me	-2074
/17	-2075
nos	-2076
ply	-2077
ral	-2078
str	-2079
ails	-2080
lace	-2081
orth	-2082
▁met	-2083
▁pal	-2084
▁vol	-2085
/1732	-2086
antly	-2087
cient	-2088
ivers	-2089
▁furn	-2090
▁brain	-2091
▁hours	-2092
▁lance	-2093
▁noble	-2094
▁separ	-2095
▁table	-2096
▁satisf	-2097
▁nervous	-2098
▁quarter	-2099
▁running	-2100
▁surface	-2101
▁integral	-2102
▁received	-2103
▁whaleman	-2104
▁wondrous	-2105
▁knowledge	-2106
.’	-2107
ky	-2108
for	-2109
hip	-2110
see	-2111
▁Sp	-2112
acle	-2113
▁bit	-2114
▁bod	-2115
▁fac	-2116
▁roy	-2117
▁ske	-2118
ashed	-2119
gence	-2120
iment	-2121
istic	-2122
izing	-2123
known	-2124
night	-2125
▁Lord	-2126
▁able	-2127
▁anim	-2128
▁dart	-2129
▁fall	-2130
▁held	-2131
▁indu	-2132
▁prot	-2133
▁wake	-2134
mitted	-2135
▁coast	-2136
▁house	-2137
▁invol	-2138
▁occur	-2139
▁storm	-2140
▁caught	-2141
▁rolled	-2142
▁saying	-2143
▁somehow	-2144
▁distance	-2145
▁neuroses	-2146
▁occasion	-2147
▁concerning	-2148
▁unconscious	-2149
:—	-2150
min	-2151
ues	-2152
▁11	-2153
▁Qu	-2154
▁Up	-2155
long	-2156
omin	-2157
stem	-2158
▁tri	-2159
▁blue	-2160
▁nigh	-2161
▁self	-2162
castle	-2163
icense	-2164
▁Green	-2165
▁bring	-2166
▁cross	-2167
▁exact	-2168
ossible	-2169
▁Christ	-2170
▁German	-2171
▁States	-2172
▁seamen	-2173
▁content	-2174
▁unknown	-2175
▁creature	-2176
▁manifest	-2177
5.	-2178
ety	-2179
wor	-2180
ager	-2181
irst	-2182
oses	-2183
raph	-2184
▁cap	-2185
ieved	-2186
itive	-2187
nosis	-2188
▁Some	-2189
▁bill	-2190
▁born	-2191
▁firm	-2192
▁five	-2193
▁kill	-2194
▁meet	-2195
▁narr	-2196
▁sens	-2197
▁sole	-2198
erable	-2199
▁Freud	-2200
▁appro	-2201
▁field	-2202
▁horiz	-2203
▁queer	-2204
▁truth	-2205
▁words	-2206
▁demand	-2207
▁except	-2208
▁extrem	-2209
ressions	-2210
▁example	-2211
▁learned	-2212
▁plainly	-2213
▁condition	-2214
▁generally	-2215
.)	-2216
:2	-2217
bb	-2218
ds	-2219
na	-2220
zz	-2221
ney	-2222
▁II	-2223
iest	-2224
kilt	-2225
yond	-2226
▁gun	-2227
▁loc	-2228
▁sky	-2229
▁tre	-2230
osing	-2231
while	-2232
▁brow	-2233
▁crow	-2234
▁fier	-2235
▁idea	-2236
▁post	-2237
▁scar	-2238
▁situ	-2239
▁stat	-2240
▁Never	-2241
▁While	-2242
▁blind	-2243
▁conce	-2244
▁impul	-2245
▁mates	-2246
▁royal	-2247
▁takes	-2248
▁touch	-2249
▁associ	-2250
▁danger	-2251
▁diffic	-2252
▁mortal	-2253
▁remain	-2254
▁simply	-2255
▁attempt	-2256
▁country	-2257
ification	-2258
▁American	-2259
▁beginning	-2260
▁carpenter	-2261
▁impossible	-2262
,’	-2263
jo	-2264
mn	-2265
▁9	-2266
And	-2267
chn	-2268
eas	-2269
hib	-2270
▁Ex	-2271
▁TH	-2272
▁da	-2273
▁id	-2274
aled	-2275
ator	-2276
hens	-2277
hore	-2278
medi	-2279
phan	-2280
▁One	-2281
▁arg	-2282
▁eng	-2283
▁mem	-2284
▁mus	-2285
▁sho	-2286
ifted	-2287
incip	-2288
rible	-2289
ubber	-2290
ument	-2291
▁bear	-2292
▁conv	-2293
▁pain	-2294
▁snow	-2295
idered	-2296
itudes	-2297
ounter	-2298
ternal	-2299
▁becom	-2300
▁lines	-2301
▁techn	-2302
▁third	-2303
▁United	-2304
▁degree	-2305
▁effect	-2306
▁exceed	-2307
▁famous	-2308
▁island	-2309
▁merely	-2310
▁remark	-2311
▁unless	-2312
▁yields	-2313
▁success	-2314
▁discover	-2315
▁training	-2316
▁agreement	-2317
▁sufficient	-2318
▁nevertheless	-2319
Oh	-2320
St	-2321
ec	-2322
oh	-2323
But	-2324
acy	-2325
che	-2326
omm	-2327
▁10	-2328
▁Do	-2329
▁bu	-2330
aged	-2331
ater	-2332
atic	-2333
sing	-2334
▁Don	-2335
▁ble	-2336
▁neg	-2337
▁sal	-2338
▁unf	-2339
▁vic	-2340
warks	-2341
▁Cape	-2342
▁bone	-2343
▁jack	-2344
▁laws	-2345
▁leap	-2346
▁none	-2347
▁priv	-2348
▁prob	-2349
▁rese	-2350
▁temp	-2351
▁trad	-2352
▁vain	-2353
▁fresh	-2354
▁surpr	-2355
▁utter	-2356
▁around	-2357
▁darted	-2358
▁hardly	-2359
▁middle	-2360
▁sailed	-2361
▁skelet	-2362
▁streng	-2363
▁leaving	-2364
▁followed	-2365
▁forehead	-2366
▁previous	-2367
▁symptoms	-2368
▁necessary	-2369
▁considered	-2370
▁everything	-2371
6.	-2372
AN	-2373
ger	-2374
oll	-2375
uct	-2376
ued	-2377
uge	-2378
unt	-2379
uty	-2380
▁SA	-2381
▁vi	-2382
ruct	-2383
▁Can	-2384
▁log	-2385
▁mal	-2386
▁pop	-2387
There	-2388
aught	-2389
▁Look	-2390
▁Well	-2391
▁arri	-2392
▁capt	-2393
▁fron	-2394
▁grow	-2395
▁helm	-2396
▁opin	-2397
▁whit	-2398
though	-2399
▁After	-2400
▁burst	-2401
▁sails	-2402
▁beyond	-2403
▁placed	-2404
▁theory	-2405
▁describ	-2406
▁remains	-2407
▁similar	-2408
▁weather	-2409
▁actually	-2410
▁instinct	-2411
▁patients	-2412
▁Greenland	-2413
▁childhood	-2414
▁distribut	-2415
▁gentlemen	-2416
He	-2417
In	-2418
br	-2419
asm	-2420
att	-2421
ding	-2422
eper	-2423
look	-2424
▁Man	-2425
▁Pac	-2426
▁Why	-2427
▁ago	-2428
▁fit	-2429
▁hig	-2430
▁jet	-2431
▁lie	-2432
▁lur	-2433
▁pay	-2434
▁sup	-2435
ailed	-2436
ember	-2437
icked	-2438
otion	-2439
rosis	-2440
▁acqu	-2441
▁atte	-2442
▁cann	-2443
▁disp	-2444
▁draw	-2445
▁fool	-2446
▁prim	-2447
▁step	-2448
▁wish	-2449
acious	-2450
rehens	-2451
▁Where	-2452
▁activ	-2453
▁heavy	-2454
▁quiet	-2455
▁access	-2456
▁coffin	-2457
▁compar	-2458
▁flukes	-2459
▁intell	-2460
▁killed	-2461
▁system	-2462
▁Pacific	-2463
▁carried	-2464
▁concept	-2465
▁bulwarks	-2466
▁entirely	-2467
▁regarded	-2468
▁copyright	-2469
▁psychological	-2470
isp	-2471
ilos	-2472
lock	-2473
lord	-2474
▁Who	-2475
▁ann	-2476
▁fla	-2477
▁jud	-2478
▁lau	-2479
▁rev	-2480
▁unw	-2481
▁wal	-2482
▁won	-2483
inter	-2484
▁Arch	-2485
▁arms	-2486
▁crit	-2487
▁hull	-2488
▁hung	-2489
▁legs	-2490
▁nose	-2491
▁path	-2492
▁prep	-2493
▁viol	-2494
ashing	-2495
lusion	-2496
ounded	-2497
▁Steel	-2498
▁altog	-2499
▁rapid	-2500
ference	-2501
▁nearly	-2502
▁recogn	-2503
▁scient	-2504
▁Besides	-2505
▁cutting	-2506
▁results	-2507
▁attached	-2508
▁interval	-2509
▁profound	-2510
▁concerned	-2511
▁interpret	-2512
▁substance	-2513
▁altogether	-2514
▁forecastle	-2515
▁frequently	-2516
▁considerable	-2517
sc	-2518
sm	-2519
uly	-2520
ume	-2521
aked	-2522
boat	-2523
ison	-2524
utch	-2525
▁ice	-2526
▁pil	-2527
▁shr	-2528
▁tow	-2529
aggoo	-2530
ulous	-2531
▁boys	-2532
▁bulk	-2533
▁gall	-2534
▁hair	-2535
▁hang	-2536
▁past	-2537
▁pipe	-2538
▁rule	-2539
▁shot	-2540
▁sugg	-2541
ilosop	-2542
▁ignor	-2543
▁knows	-2544
▁perce	-2545
▁steel	-2546
▁sweet	-2547
▁turns	-2548
▁school	-2549
▁blubber	-2550
▁feeling	-2551
▁hammock	-2552
▁holding	-2553
▁sailing	-2554
▁suspend	-2555
▁hypnosis	-2556
▁somewhat	-2557
▁strength	-2558
▁Steelkilt	-2559
▁creatures	-2560
▁difficult	-2561
▁intervals	-2562
▁repression	-2563
▁circumstances	-2564
7.	-2565
9.	-2566
?’	-2567
bol	-2568
irt	-2569
ugg	-2570
Fish	-2571
ILOR	-2572
appe	-2573
ices	-2574
lass	-2575
ores	-2576
rupt	-2577
vell	-2578
▁Yes	-2579
▁fut	-2580
▁wre	-2581
ented	-2582
itary	-2583
lared	-2584
orous	-2585
▁miss	-2586
▁mood	-2587
▁sink	-2588
▁stro	-2589
▁year	-2590
ercise	-2591
▁These	-2592
▁eager	-2593
▁eight	-2594
▁fifty	-2595
▁honor	-2596
▁shipm	-2597
olutely	-2598
taining	-2599
▁Daggoo	-2600
▁SAILOR	-2601
▁across	-2602
▁ashore	-2603
▁immedi	-2604
▁result	-2605
▁becomes	-2606
▁company	-2607
▁meaning	-2608
▁problem	-2609
▁rigging	-2610
▁species	-2611
▁visible	-2612
▁neurosis	-2613
▁philosop	-2614
▁skeleton	-2615
▁instances	-2616
▁otherwise	-2617
▁sexuality	-2618
▁afterwards	-2619
▁information	-2620
▁Nevertheless	-2621
IS	-2622
lt	-2623
ny	-2624
ips	-2625
ium	-2626
pes	-2627
upp	-2628
▁12	-2629
▁Ha	-2630
▁My	-2631
Book	-2632
come	-2633
ivil	-2634
rodu	-2635
▁Aye	-2636
▁ach	-2637
▁ear	-2638
▁gir	-2639
▁nam	-2640
▁tor	-2641
alled	-2642
erted	-2643
inger	-2644
itten	-2645
there	-2646
▁anch	-2647
▁cold	-2648
▁deal	-2649
▁skin	-2650
isting	-2651
lished	-2652
▁facts	-2653
▁fancy	-2654
▁fight	-2655
▁front	-2656
▁sense	-2657
▁study	-2658
▁upper	-2659
ibility	-2660
▁future	-2661
▁giving	-2662
▁hither	-2663
▁longer	-2664
▁strike	-2665
▁twenty	-2666
▁drawing	-2667
▁passage	-2668
▁reached	-2669
▁improper	-2670
▁according	-2671
▁resistance	-2672
▁scientific	-2673
▁experiences	-2674
!’	-2675
bor	-2676
iam	-2677
pic	-2678
row	-2679
ths	-2680
▁od	-2681
▁ve	-2682
acks	-2683
arch	-2684
idel	-2685
irty	-2686
oned	-2687
umed	-2688
vers	-2689
▁See	-2690
▁aft	-2691
▁bri	-2692
▁lab	-2693
▁led	-2694
▁sad	-2695
idden	-2696
ienna	-2697
orted	-2698
uttle	-2699
▁bold	-2700
▁corp	-2701
▁gras	-2702
▁heed	-2703
▁late	-2704
▁ring	-2705
ormous	-2706
▁final	-2707
▁leave	-2708
▁skull	-2709
▁sweep	-2710
▁value	-2711
▁French	-2712
▁Whales	-2713
▁affair	-2714
▁myster	-2715
▁planks	-2716
▁spring	-2717
▁stands	-2718
▁ancient	-2719
▁instead	-2720
▁opinion	-2721
▁pointed	-2722
▁rolling	-2723
▁apparent	-2724
▁darkness	-2725
▁enormous	-2726
▁practical	-2727
▁considering	-2728
▁disturbances	-2729
NC	-2730
ey	-2731
hs	-2732
dig	-2733
ony	-2734
tty	-2735
unk	-2736
▁3.	-2737
▁Ad	-2738
▁OF	-2739
▁er	-2740
▁oh	-2741
ales	-2742
alog	-2743
cape	-2744
oney	-2745
▁die	-2746
▁gre	-2747
▁gro	-2748
▁pun	-2749
anced	-2750
erous	-2751
inced	-2752
itute	-2753
iving	-2754
ustom	-2755
▁More	-2756
▁huge	-2757
▁list	-2758
▁myst	-2759
▁phan	-2760
▁spec	-2761
▁talk	-2762
atural	-2763
lessly	-2764
▁cause	-2765
▁civil	-2766
▁desce	-2767
▁eBook	-2768
▁event	-2769
▁miles	-2770
▁peril	-2771
▁shark	-2772
▁sides	-2773
▁swall	-2774
▁swell	-2775
▁visit	-2776
henomen	-2777
ization	-2778
▁cannib	-2779
▁charge	-2780
▁circle	-2781
▁forced	-2782
▁mother	-2783
▁proved	-2784
▁public	-2785
▁scarce	-2786
▁showed	-2787
▁thrown	-2788
▁popular	-2789
▁started	-2790
efinition	-2791
▁contrast	-2792
▁original	-2793
▁possibly	-2794
▁repeated	-2795
▁certainly	-2796
▁conditions	-2797
▁experience	-2798
0.	-2799
LE	-2800
No	-2801
oc	-2802
het	-2803
inn	-2804
sey	-2805
ush	-2806
wha	-2807
alth	-2808
utes	-2809
▁age	-2810
▁fig	-2811
▁joy	-2812
▁maj	-2813
▁pie	-2814
anted	-2815
chant	-2816
ouble	-2817
ushed	-2818
▁ende	-2819
▁grad	-2820
▁jaws	-2821
▁keel	-2822
▁rock	-2823
▁spot	-2824
▁tall	-2825
▁trem	-2826
▁warm	-2827
▁whis	-2828
▁added	-2829
▁chest	-2830
▁drawn	-2831
▁dread	-2832
▁grave	-2833
▁scene	-2834
▁smoke	-2835
▁wrink	-2836
itional	-2837
▁Vienna	-2838
▁answer	-2839
▁bright	-2840
▁flying	-2841
▁hammer	-2842
▁height	-2843
▁rising	-2844
▁seeing	-2845
▁spirit	-2846
▁tossed	-2847
▁finally	-2848
▁hoisted	-2849
▁intense	-2850
▁leeward	-2851
▁measure	-2852
▁picture	-2853
▁princip	-2854
▁thunder	-2855
▁distinct	-2856
▁harpoons	-2857
▁mariners	-2858
▁phenomen	-2859
▁striking	-2860
▁swimming	-2861
▁yourself	-2862
▁alongside	-2863
▁precisely	-2864
▁situation	-2865
▁strangely	-2866
4]	-2867
OO	-2868
oe	-2869
”—	-2870
acc	-2871
app	-2872
dra	-2873
hel	-2874
set	-2875
ton	-2876
val	-2877
ayed	-2878
deck	-2879
lers	-2880
▁Cha	-2881
▁Fed	-2882
▁Int	-2883
▁THE	-2884
▁bad	-2885
▁cre	-2886
▁fav	-2887
▁non	-2888
▁suc	-2889
allah	-2890
emark	-2891
icine	-2892
imate	-2893
llows	-2894
olved	-2895
oured	-2896
smith	-2897
stone	-2898
▁bree	-2899
▁deli	-2900
▁duty	-2901
▁gale	-2902
▁gunw	-2903
▁lamp	-2904
▁rose	-2905
▁sick	-2906
▁unre	-2907
cience	-2908
encies	-2909
ishing	-2910
▁Liter	-2911
▁admit	-2912
▁faith	-2913
▁imply	-2914
▁needs	-2915
▁shout	-2916
▁uncom	-2917
▁urges	-2918
▁Parsee	-2919
▁astern	-2920
▁behold	-2921
▁bodily	-2922
▁endeav	-2923
▁former	-2924
▁glance	-2925
▁hearts	-2926
▁inclin	-2927
▁master	-2928
▁pretty	-2929
▁secret	-2930
▁spread	-2931
▁thrust	-2932
▁bearing	-2933
▁dropped	-2934
▁exactly	-2935
▁getting	-2936
▁succeed	-2937
conscious	-2938
▁Fedallah	-2939
▁investig	-2940
▁speaking	-2941
▁thinking	-2942
▁fishermen	-2943
▁including	-2944
▁mentioned	-2945
▁overboard	-2946
▁remarkable	-2947
▁application	-2948
▁circumstance	-2949
CT	-2950
cha	-2951
eks	-2952
▁Sc	-2953
arer	-2954
bone	-2955
cell	-2956
fast	-2957
oura	-2958
vere	-2959
▁dom	-2960
▁sev	-2961
▁sto	-2962
▁tub	-2963
▁woe	-2964
asses	-2965
asted	-2966
ision	-2967
pered	-2968
▁Will	-2969
▁bird	-2970
▁cand	-2971
▁fail	-2972
▁hint	-2973
▁hump	-2974
▁imag	-2975
▁laid	-2976
▁lord	-2977
▁oper	-2978
▁tack	-2979
▁task	-2980
alyses	-2981
ential	-2982
ignity	-2983
itable	-2984
▁Dutch	-2985
▁First	-2986
▁ahead	-2987
▁estab	-2988
▁exist	-2989
▁forty	-2990
▁hence	-2991
▁lands	-2992
▁relig	-2993
▁battle	-2994
▁centur	-2995
▁escape	-2996
▁extent	-2997
▁eyeing	-2998
▁formed	-2999
▁hidden	-3000
▁motion	-3001
▁thirty	-3002
▁unable	-3003
▁wholly	-3004
▁appears	-3005
▁complex	-3006
▁consequ	-3007
▁history	-3008
▁leaning	-3009
▁perform	-3010
▁converge	-3011
▁instance	-3012
▁position	-3013
▁practice	-3014
▁sideways	-3015
▁signific	-3016
▁relations	-3017
▁whiteness	-3018
▁differenti	-3019
▁originally	-3020
▁profession	-3021
ER	-3022
io	-3023
▁-	-3024
bit	-3025
ded	-3026
etr	-3027
haw	-3028
nds	-3029
omy	-3030
zed	-3031
Well	-3032
ergy	-3033
fish	-3034
held	-3035
host	-3036
ldom	-3037
lect	-3038
orpo	-3039
orts	-3040
rant	-3041
rope	-3042
▁adm	-3043
▁big	-3044
▁cow	-3045
▁obv	-3046
▁sla	-3047
▁yes	-3048
ental	-3049
gment	-3050
▁Lake	-3051
▁blow	-3052
▁drag	-3053
▁ears	-3054
▁grat	-3055
▁harm	-3056
▁hast	-3057
▁heat	-3058
▁king	-3059
▁ones	-3060
▁perf	-3061
▁slip	-3062
▁town	-3063
agraph	-3064
idence	-3065
racted	-3066
▁aband	-3067
▁apart	-3068
▁aside	-3069
▁bread	-3070
▁displ	-3071
▁pilot	-3072
▁stage	-3073
▁thera	-3074
▁until	-3075
▁using	-3076
arboard	-3077
▁accept	-3078
▁assume	-3079
▁depend	-3080
▁easily	-3081
▁events	-3082
▁filled	-3083
▁latter	-3084
▁points	-3085
▁repres	-3086
▁silent	-3087
▁supper	-3088
▁wooden	-3089
▁Archive	-3090
▁chapter	-3091
▁conflic	-3092
▁elephan	-3093
▁express	-3094
▁extreme	-3095
▁Literary	-3096
▁argument	-3097
▁landlord	-3098
▁medicine	-3099
▁paragraph	-3100
▁suspended	-3101
▁difference	-3102
RE	-3103
af	-3104
ob	-3105
zy	-3106
▁;	-3107
amb	-3108
lim	-3109
▁BY	-3110
▁Dr	-3111
aded	-3112
aker	-3113
gent	-3114
hole	-3115
rent	-3116
sion	-3117
▁aim	-3118
▁ask	-3119
▁beg	-3120
▁dog	-3121
▁ran	-3122
▁rid	-3123
▁tit	-3124
▁vap	-3125
▁wid	-3126
asons	-3127
inity	-3128
wered	-3129
▁Like	-3130
▁Supp	-3131
▁Thou	-3132
▁beat	-3133
▁corn	-3134
▁dism	-3135
▁empt	-3136
▁fles	-3137
▁foam	-3138
▁glad	-3139
▁gods	-3140
▁leak	-3141
▁paid	-3142
▁stop	-3143
asmuch	-3144
iction	-3145
seless	-3146
unning	-3147
▁agree	-3148
▁appar	-3149
▁cheer	-3150
▁fully	-3151
▁ghost	-3152
▁horse	-3153
▁infer	-3154
▁laugh	-3155
▁looks	-3156
▁loose	-3157
▁masts	-3158
▁pitch	-3159
▁smell	-3160
▁yards	-3161
iveness	-3162
▁animal	-3163
▁centre	-3164
▁destro	-3165
▁higher	-3166
▁prohib	-3167
▁raised	-3168
▁seated	-3169
▁seldom	-3170
▁simple	-3171
▁steady	-3172
▁Uniform	-3173
▁advance	-3174
▁disappe	-3175
▁explain	-3176
▁mention	-3177
▁pursuit	-3178
▁reasons	-3179
▁superst	-3180
▁Moreover	-3181
▁cruising	-3182
▁directly	-3183
▁employed	-3184
▁remember	-3185
▁revealed	-3186
▁described	-3187
▁lightning	-3188
▁reference	-3189
▁absolutely	-3190
▁analytical	-3191
▁observation	-3192
▁understanding	-3193
Ex	-3194
az	-3195
cl	-3196
fl	-3197
apt	-3198
ari	-3199
ify	-3200
isc	-3201
key	-3202
uer	-3203
you	-3204
▁13	-3205
▁Br	-3206
▁Ho	-3207
▁yo	-3208
agan	-3209
anqu	-3210
cket	-3211
erve	-3212
inal	-3213
outs	-3214
teen	-3215
▁Bre	-3216
▁Rad	-3217
▁ang	-3218
▁bea	-3219
▁din	-3220
▁hot	-3221
▁oar	-3222
▁pul	-3223
▁vig	-3224
eases	-3225
ended	-3226
ially	-3227
inite	-3228
ormal	-3229
ospit	-3230
otten	-3231
uable	-3232
▁1.8.	-3233
▁Char	-3234
▁Upon	-3235
▁anat	-3236
▁coat	-3237
▁drew	-3238
▁drop	-3239
▁earn	-3240
▁educ	-3241
▁exha	-3242
▁fain	-3243
▁horr	-3244
▁inde	-3245
▁loft	-3246
▁pred	-3247
▁prog	-3248
▁rate	-3249
▁swam	-3250
▁tong	-3251
/17329	-3252
antime	-3253
ribute	-3254
▁blows	-3255
▁claim	-3256
▁class	-3257
▁demon	-3258
▁imper	-3259
▁lives	-3260
▁natur	-3261
▁pleas	-3262
▁stuff	-3263
▁sword	-3264
▁today	-3265
retched	-3266
▁doublo	-3267
▁hinted	-3268
▁indisp	-3269
▁orders	-3270
▁perils	-3271
▁prodig	-3272
▁stream	-3273
aneously	-3274
▁complic	-3275
▁contact	-3276
▁follows	-3277
▁hunters	-3278
▁matters	-3279
▁quickly	-3280
▁thyself	-3281
▁answered	-3282
▁floating	-3283
▁midnight	-3284
▁observed	-3285
▁Christian	-3286
▁attention	-3287
▁commanded	-3288
▁donations	-3289
▁gentleman	-3290
▁necessity	-3291
▁trademark	-3292
▁wonderful	-3293
▁conclusion	-3294
3]	-3295
AL	-3296
AR	-3297
yp	-3298
ram	-3299
tis	-3300
▁17	-3301
▁Co	-3302
enth	-3303
ills	-3304
rane	-3305
this	-3306
umps	-3307
▁bab	-3308
▁bas	-3309
▁dat	-3310
▁gen	-3311
▁gri	-3312
▁spl	-3313
▁sta	-3314
▁tot	-3315
ading	-3316
erved	-3317
ortun	-3318
osite	-3319
▁burn	-3320
▁cord	-3321
▁dept	-3322
▁desp	-3323
▁feat	-3324
▁flew	-3325
▁hide	-3326
▁hunt	-3327
▁keen	-3328
▁lies	-3329
▁meas	-3330
▁move	-3331
▁pick	-3332
▁pray	-3333
▁prem	-3334
▁rear	-3335
▁remo	-3336
▁resp	-3337
▁thor	-3338
▁wife	-3339
▁agent	-3340
▁alive	-3341
▁blank	-3342
▁doing	-3343
▁feels	-3344
▁flesh	-3345
▁guess	-3346
▁ident	-3347
▁incre	-3348
▁level	-3349
▁negro	-3350
▁owing	-3351
▁quest	-3352
▁restr	-3353
▁shock	-3354
▁shore	-3355
▁spite	-3356
▁tried	-3357
▁unacc	-3358
▁worse	-3359
ational	-3360
▁advant	-3361
▁fright	-3362
▁hollow	-3363
▁lances	-3364
▁marked	-3365
▁proced	-3366
▁shroud	-3367
▁solemn	-3368
▁squall	-3369
▁strict	-3370
▁watery	-3371
▁weight	-3372
▁Lakeman	-3373
▁Suppose	-3374
▁applied	-3375
▁comfort	-3376
▁passing	-3377
▁require	-3378
▁vessels	-3379
▁working	-3380
▁worship	-3381
▁expected	-3382
▁personal	-3383
▁physical	-3384
▁thorough	-3385
▁discovery	-3386
▁indispens	-3387
▁permitted	-3388
▁psychical	-3389
▁slightest	-3390
▁somewhere	-3391
▁apparently	-3392
▁blacksmith	-3393
▁discovered	-3394
▁previously	-3395
▁consciousness	-3396
▁interpretation	-3397
8]	-3398
ND	-3399
SE	-3400
ww	-3401
,00	-3402
bur	-3403
dip	-3404
ese	-3405
kin	-3406
mat	-3407
oid	-3408
ulf	-3409
▁Eu	-3410
emed	-3411
eter	-3412
gest	-3413
hers	-3414
oted	-3415
raid	-3416
rand	-3417
yard	-3418
▁asc	-3419
▁lif	-3420
▁pha	-3421
▁son	-3422
▁vac	-3423
▁vit	-3424
aling	-3425
dipus	-3426
hered	-3427
ister	-3428
lling	-3429
which	-3430
▁cher	-3431
▁died	-3432
▁fill	-3433
▁fort	-3434
▁gain	-3435
▁game	-3436
▁hole	-3437
▁hook	-3438
▁host	-3439
▁inqu	-3440
▁luck	-3441
▁lung	-3442
▁murd	-3443
▁prow	-3444
▁rise	-3445
▁sett	-3446
▁term	-3447
▁ways	-3448
▁South	-3449
▁deter	-3450
▁extra	-3451
▁fiery	-3452
▁force	-3453
▁libid	-3454
▁proof	-3455
▁serve	-3456
▁souls	-3457
▁stove	-3458
fulness	-3459
▁colour	-3460
▁custom	-3461
▁dashed	-3462
▁deadly	-3463
▁deeper	-3464
▁gazing	-3465
▁hyster	-3466
▁modern	-3467
▁normal	-3468
▁sought	-3469
▁symbol	-3470
▁tempor	-3471
▁terror	-3472
▁England	-3473
▁besides	-3474
▁distant	-3475
▁earnest	-3476
▁license	-3477
▁phantom	-3478
▁pulling	-3479
▁rapidly	-3480
▁reality	-3481
▁seventy	-3482
▁utterly	-3483
▁written	-3484
▁activity	-3485
▁descried	-3486
▁greatest	-3487
▁opposite	-3488
▁separate	-3489
▁terrible	-3490
▁uncommon	-3491
▁windlass	-3492
▁windward	-3493
▁authority	-3494
▁civilized	-3495
▁gradually	-3496
▁magnitude	-3497
▁ourselves	-3498
▁procedure	-3499
▁repressed	-3500
▁satisfact	-3501
▁shipmates	-3502
▁expression	-3503
▁Nantucketer	-3504
▁indispensable	-3505
1]	-3506
Ca	-3507
NT	-3508
RO	-3509
fe	-3510
my	-3511
▁z	-3512
Why	-3513
bat	-3514
don	-3515
iat	-3516
ibr	-3517
uzz	-3518
vil	-3519
▁16	-3520
▁Ab	-3521
▁Am	-3522
▁di	-3523
,000	-3524
ague	-3525
erer	-3526
hawk	-3527
llen	-3528
oles	-3529
peut	-3530
rust	-3531
▁Imp	-3532
▁Jap	-3533
▁May	-3534
▁Sea	-3535
▁Sha	-3536
▁Sir	-3537
▁arr	-3538
▁del	-3539
▁dig	-3540
▁fee	-3541
▁wit	-3542
ample	-3543
cause	-3544
ompan	-3545
ource	-3546
owers	-3547
urely	-3548
ution	-3549
▁base	-3550
▁didn	-3551
▁fash	-3552
▁grey	-3553
▁pole	-3554
▁reck	-3555
▁reel	-3556
▁sake	-3557
▁shud	-3558
▁tree	-3559
▁unus	-3560
▁vent	-3561
headed	-3562
▁aston	-3563
▁crown	-3564
▁decks	-3565
▁delic	-3566
▁drown	-3567
▁empty	-3568
▁enter	-3569
▁erect	-3570
▁famil	-3571
▁fatal	-3572
▁ideas	-3573
▁jolly	-3574
▁lofty	-3575
▁rever	-3576
▁spare	-3577
▁teach	-3578
ability	-3579
ictions	-3580
ishment	-3581
▁Conver	-3582
▁Radney	-3583
▁afraid	-3584
▁anchor	-3585
▁beheld	-3586
▁breath	-3587
▁calcul	-3588
▁combin	-3589
▁discus	-3590
▁disord	-3591
▁energy	-3592
▁freely	-3593
▁hailed	-3594
▁hospit	-3595
▁hypnot	-3596
▁incred	-3597
▁intent	-3598
▁mechan	-3599
▁months	-3600
▁obtain	-3601
▁ponder	-3602
▁social	-3603
▁America	-3604
▁brother	-3605
▁closely	-3606
▁dignity	-3607
▁element	-3608
▁minutes	-3609
▁obvious	-3610
▁persons	-3611
▁possess	-3612
▁putting	-3613
▁sitting	-3614
▁subsequ	-3615
▁suggest	-3616
▁Psychoan	-3617
▁critical	-3618
▁diseases	-3619
▁function	-3620
▁happened	-3621
▁horizont	-3622
▁independ	-3623
▁intellig	-3624
▁pictures	-3625
▁prepared	-3626
▁constitut	-3627
▁direction	-3628
▁forgotten	-3629
▁regularly	-3630
▁transform	-3631
▁continually	-3632
▁convergence	-3633
▁sufficiently	-3634
14	-3635
ek	-3636
How	-3637
ics	-3638
nal	-3639
▁Or	-3640
▁Pl	-3641
▁Yo	-3642
abri	-3643
ancy	-3644
angu	-3645
cent	-3646
miss	-3647
urch	-3648
uses	-3649
work	-3650
▁cho	-3651
▁fra	-3652
▁gig	-3653
▁hoo	-3654
▁lan	-3655
▁obl	-3656
▁pac	-3657
▁pot	-3658
▁unp	-3659
aries	-3660
irtue	-3661
rance	-3662
using	-3663
▁arch	-3664
▁clot	-3665
▁cong	-3666
▁cost	-3667
▁cred	-3668
▁ends	-3669
▁flag	-3670
▁glim	-3671
▁horn	-3672
▁lone	-3673
▁neck	-3674
▁page	-3675
▁race	-3676
▁rare	-3677
▁reco	-3678
▁scra	-3679
▁seek	-3680
▁test	-3681
▁thin	-3682
▁torn	-3683
▁twel	-3684
▁vill	-3685
abriel	-3686
hether	-3687
inking	-3688
lantic	-3689
orting	-3690
ulated	-3691
velled	-3692
▁Great	-3693
▁Japan	-3694
▁Stand	-3695
▁brave	-3696
▁clean	-3697
▁cloud	-3698
▁cover	-3699
▁earli	-3700
▁equal	-3701
▁flood	-3702
▁floor	-3703
▁forms	-3704
▁gives	-3705
▁lived	-3706
▁money	-3707
▁monst	-3708
▁peace	-3709
▁space	-3710
▁swung	-3711
▁truly	-3712
▁winds	-3713
▁wound	-3714
ination	-3715
▁aboard	-3716
▁actual	-3717
▁afford	-3718
▁amount	-3719
▁analog	-3720
▁attend	-3721
▁depart	-3722
▁explan	-3723
▁gained	-3724
▁health	-3725
▁inches	-3726
▁laymen	-3727
▁murder	-3728
▁resemb	-3729
▁seized	-3730
▁simult	-3731
▁trying	-3732
▁yellow	-3733
Queequeg	-3734
▁License	-3735
▁billows	-3736
▁chiefly	-3737
▁evinced	-3738
▁gunwale	-3739
▁hanging	-3740
▁happens	-3741
▁lowered	-3742
▁project	-3743
▁scuttle	-3744
▁univers	-3745
▁withdra	-3746
▁cannibal	-3747
▁gigantic	-3748
▁hitherto	-3749
▁invested	-3750
▁numerous	-3751
▁opportun	-3752
▁presents	-3753
▁provided	-3754
▁religion	-3755
▁sleeping	-3756
▁superior	-3757
▁supposed	-3758
▁concluded	-3759
▁dangerous	-3760
▁functions	-3761
▁intention	-3762
▁naturally	-3763
▁presented	-3764
▁processes	-3765
▁published	-3766
▁thousands	-3767
);	-3768
0]	-3769
6]	-3770
ev	-3771
—”	-3772
aul	-3773
bed	-3774
can	-3775
cap	-3776
iac	-3777
lls	-3778
rel	-3779
ris	-3780
▁je	-3781
That	-3782
atch	-3783
enge	-3784
iced	-3785
iful	-3786
ique	-3787
irth	-3788
last	-3789
lded	-3790
mael	-3791
rair	-3792
ribe	-3793
sail	-3794
ties	-3795
with	-3796
▁Acc	-3797
▁BOO	-3798
▁She	-3799
▁bag	-3800
▁bes	-3801
▁fet	-3802
▁fow	-3803
▁pan	-3804
▁sin	-3805
▁tum	-3806
aceti	-3807
aches	-3808
estic	-3809
irect	-3810
irgin	-3811
mense	-3812
whale	-3813
works	-3814
▁Horn	-3815
▁Only	-3816
▁band	-3817
▁beef	-3818
▁comr	-3819
▁elev	-3820
▁isol	-3821
▁loud	-3822
▁noon	-3823
▁ribs	-3824
▁unse	-3825
▁weap	-3826
ground	-3827
icking	-3828
ifying	-3829
isible	-3830
oubled	-3831
pering	-3832
ptions	-3833
shmael	-3834
▁bless	-3835
▁casks	-3836
▁diver	-3837
▁globe	-3838
▁knock	-3839
▁seren	-3840
▁shape	-3841
▁sorts	-3842
▁spect	-3843
▁speed	-3844
▁swing	-3845
itation	-3846
orpoise	-3847
▁Breuer	-3848
▁Integr	-3849
▁barbar	-3850
▁breeze	-3851
▁change	-3852
▁commun	-3853
▁conven	-3854
▁excell	-3855
▁family	-3856
▁figure	-3857
▁hunted	-3858
▁impart	-3859
▁indiff	-3860
▁inside	-3861
▁intens	-3862
▁jacket	-3863
▁leaves	-3864
▁places	-3865
▁record	-3866
▁twelve	-3867
lessness	-3868
▁Gabriel	-3869
▁anybody	-3870
▁counter	-3871
▁engaged	-3872
▁foolish	-3873
▁friends	-3874
▁horizon	-3875
▁keeping	-3876
▁largest	-3877
▁observe	-3878
▁perpend	-3879
▁private	-3880
▁provide	-3881
▁silence	-3882
▁smoking	-3883
▁swiftly	-3884
▁terrors	-3885
▁upwards	-3886
▁whalers	-3887
▁Atlantic	-3888
▁Improper	-3889
▁Meantime	-3890
▁anywhere	-3891
▁inasmuch	-3892
▁included	-3893
▁indirect	-3894
▁judgment	-3895
▁merchant	-3896
▁nameless	-3897
▁officers	-3898
▁ordinary	-3899
▁precious	-3900
▁probably	-3901
▁solitary	-3902
▁valuable	-3903
▁vicinity	-3904
▁advantage	-3905
▁continued	-3906
▁countries	-3907
▁establish	-3908
▁primitive	-3909
▁unaccount	-3910
▁additional	-3911
▁appearance	-3912
▁conscience	-3913
▁complicated	-3914
▁impressions	-3915
▁gratification	-3916
▁perpendicular	-3917
IC	-3918
ON	-3919
SA	-3920
tr	-3921
wo	-3922
ws	-3923
ys	-3924
Tex	-3925
com	-3926
cri	-3927
edf	-3928
fer	-3929
nam	-3930
sha	-3931
sts	-3932
top	-3933
ude	-3934
▁15	-3935
▁CC	-3936
▁Go	-3937
▁Gu	-3938
▁ce	-3939
Look	-3940
anch	-3941
ench	-3942
enes	-3943
gain	-3944
ibre	-3945
ingu	-3946
kind	-3947
orge	-3948
peak	-3949
rels	-3950
▁3.0	-3951
▁Any	-3952
▁Que	-3953
▁bol	-3954
▁coo	-3955
▁nur	-3956
▁phr	-3957
▁row	-3958
▁sor	-3959
Texts	-3960
asing	-3961
astic	-3962
attoo	-3963
cking	-3964
idity	-3965
orthy	-3966
owder	-3967
rable	-3968
respo	-3969
white	-3970
▁Bedf	-3971
▁Come	-3972
▁Even	-3973
▁Fast	-3974
▁Gree	-3975
▁Hist	-3976
▁Soon	-3977
▁alar	-3978
▁ball	-3979
▁bore	-3980
▁city	-3981
▁cool	-3982
▁dare	-3983
▁doom	-3984
▁idol	-3985
▁lack	-3986
▁lips	-3987
▁moon	-3988
▁mult	-3989
▁musk	-3990
▁pale	-3991
▁seat	-3992
▁surr	-3993
▁sway	-3994
▁weak	-3995
▁whir	-3996
▁wise	-3997
leness	-3998
orious	-3999
▁Death	-4000
▁Perth	-4001
▁apply	-4002
▁asked	-4003
▁awful	-4004
▁benef	-4005
▁drive	-4006
▁frank	-4007
▁glory	-4008
▁grown	-4009
▁integ	-4010
▁meant	-4011
▁physi	-4012
▁plung	-4013
▁refer	-4014
▁signs	-4015
▁solid	-4016
▁spoke	-4017
▁stout	-4018
▁wheel	-4019
▁women	-4020
▁worth	-4021
natural	-4022
ruction	-4023
▁active	-4024
▁advent	-4025
▁attack	-4026
▁bucket	-4027
▁coward	-4028
▁desper	-4029
▁double	-4030
▁forget	-4031
▁golden	-4032
▁histor	-4033
▁immort	-4034
▁invari	-4035
▁libido	-4036
▁moving	-4037
▁mystic	-4038
▁notice	-4039
▁papers	-4040
▁spoken	-4041
▁thinks	-4042
▁transl	-4043
▁volume	-4044
ountered	-4045
▁Because	-4046
▁Bedford	-4047
▁Ishmael	-4048
▁arrived	-4049
▁derived	-4050
▁eternal	-4051
▁evening	-4052
▁exhaust	-4053
▁floated	-4054
▁greater	-4055
▁immense	-4056
▁impulse	-4057
▁introdu	-4058
▁marvell	-4059
▁missing	-4060
▁neither	-4061
▁perfect	-4062
▁quietly	-4063
▁telling	-4064
▁trained	-4065
▁tremend	-4066
▁whereas	-4067
gutenberg	-4068
ibreTexts	-4069
▁captains	-4070
▁captured	-4071
▁conflict	-4072
▁distingu	-4073
▁external	-4074
▁familiar	-4075
▁hypnotic	-4076
▁inserted	-4077
▁returned	-4078
▁scarcely	-4079
▁specific	-4080
▁strongly	-4081
▁contribut	-4082
▁encounter	-4083
▁essential	-4084
▁instincts	-4085
▁represent	-4086
▁comprehens	-4087
▁impression	-4088
▁possession	-4089
▁prodigious	-4090
▁tendencies	-4091
▁encountered	-4092
▁transference	-4093
Ho	-4094
bl	-4095
do	-4096
Yes	-4097
con	-4098
eds	-4099
hil	-4100
ios	-4101
ohn	-4102
oul	-4103
pel	-4104
rah	-4105
zes	-4106
▁27	-4107
▁eh	-4108
This	-4109
eren	-4110
ests	-4111
gypt	-4112
iant	-4113
iety	-4114
more	-4115
rehe	-4116
room	-4117
▁Com	-4118
▁Hus	-4119
▁ain	-4120
▁anx	-4121
▁cla	-4122
▁dip	-4123
▁pad	-4124
▁ped	-4125
▁pir	-4126
▁rum	-4127
▁ult	-4128
▁une	-4129
▁unm	-4130
▁wra	-4131
achel	-4132
acher	-4133
erent	-4134
erick	-4135
ernal	-4136
icens	-4137
icken	-4138
iring	-4139
lings	-4140
ommod	-4141
ority	-4142
oting	-4143
▁Good	-4144
▁Jung	-4145
▁Just	-4146
▁Show	-4147
▁Yojo	-4148
▁amid	-4149
▁bent	-4150
▁buoy	-4151
▁disg	-4152
▁east	-4153
▁fate	-4154
▁fath	-4155
▁gaze	-4156
▁haul	-4157
▁hemp	-4158
▁inex	-4159
▁jump	-4160
▁obsc	-4161
▁obst	-4162
▁plat	-4163
▁puff	-4164
▁qual	-4165
▁rang	-4166
▁rush	-4167
▁serv	-4168
▁shri	-4169
▁stir	-4170
▁surm	-4171
▁surv	-4172
▁toma	-4173
ailing	-4174
anting	-4175
change	-4176
ension	-4177
inated	-4178
ounced	-4179
rossed	-4180
▁Hence	-4181
▁accur	-4182
▁artic	-4183
▁based	-4184
▁basis	-4185
▁birth	-4186
▁crews	-4187
▁embra	-4188
▁faces	-4189
▁flame	-4190
▁grass	-4191
▁incor	-4192
▁indic	-4193
▁intol	-4194
▁irons	-4195
▁lying	-4196
▁occup	-4197
▁ought	-4198
▁plank	-4199
▁repla	-4200
▁revol	-4201
▁sixty	-4202
▁spine	-4203
▁stiff	-4204
▁thine	-4205
▁throw	-4206
▁totem	-4207
▁trunk	-4208
▁venge	-4209
Captain	-4210
ounding	-4211
▁Hussey	-4212
▁discip	-4213
▁driven	-4214
▁fairly	-4215
▁flight	-4216
▁infall	-4217
▁insuff	-4218
▁minute	-4219
▁narrow	-4220
▁native	-4221
▁owners	-4222
▁phrase	-4223
▁season	-4224
▁source	-4225
▁surely	-4226
▁tender	-4227
▁theore	-4228
▁Whether	-4229
▁William	-4230
▁achieve	-4231
▁compass	-4232
▁concent	-4233
▁decided	-4234
▁delight	-4235
▁emotion	-4236
▁exclaim	-4237
▁lantern	-4238
▁mankind	-4239
▁oarsmen	-4240
▁objects	-4241
▁readily	-4242
▁serious	-4243
▁shouted	-4244
▁torment	-4245
▁touched	-4246
▁violent	-4247
▁belonged	-4248
▁carrying	-4249
▁declared	-4250
▁doubloon	-4251
▁impulses	-4252
▁lowering	-4253
▁mountain	-4254
▁muttered	-4255
▁official	-4256
▁pleasant	-4257
▁problems	-4258
▁sweeping	-4259
▁tomahawk	-4260
▁troubled	-4261
▁whenever	-4262
definition	-4263
▁advancing	-4264
▁correctly	-4265
▁existence	-4266
▁instantly	-4267
▁satisfied	-4268
▁suffering	-4269
▁technique	-4270
▁therapeut	-4271
▁definition	-4272
▁comparative	-4273
▁immediately	-4274
▁repressions	-4275
▁peculiarities	-4276
▁characteristic	-4277
▁simultaneously	-4278
5]	-4279
An	-4280
IT	-4281
On	-4282
:4]	-4283
You	-4284
ata	-4285
ech	-4286
ero	-4287
icy	-4288
joy	-4289
ker	-4290
oon	-4291
uel	-4292
zen	-4293
▁14	-4294
▁20	-4295
▁30	-4296
▁Po	-4297
atus	-4298
etic	-4299
geon	-4300
oked	-4301
rise	-4302
uted	-4303
▁Did	-4304
▁Fun	-4305
▁Ram	-4306
▁Ref	-4307
▁Squ	-4308
▁Tur	-4309
▁Voy	-4310
▁ail	-4311
▁bef	-4312
▁ber	-4313
▁blo	-4314
▁box	-4315
▁dil	-4316
▁gas	-4317
▁mel	-4318
▁pos	-4319
▁sty	-4320
▁tar	-4321
▁wea	-4322
▁wed	-4323
▁www	-4324
arded	-4325
atory	-4326
aying	-4327
eding	-4328
lines	-4329
onsid	-4330
point	-4331
▁Mean	-4332
▁True	-4333
▁anti	-4334
▁bell	-4335
▁doct	-4336
▁grew	-4337
▁grim	-4338
▁grin	-4339
▁holy	-4340
▁pair	-4341
▁save	-4342
▁snat	-4343
▁thro	-4344
▁vibr	-4345
▁wear	-4346
▁whar	-4347
alling	-4348
aneous	-4349
cation	-4350
ingers	-4351
lement	-4352
ourage	-4353
pected	-4354
ranean	-4355
▁Dough	-4356
▁Egypt	-4357
▁Queen	-4358
▁Roman	-4359
▁beach	-4360
▁books	-4361
▁conve	-4362
▁cries	-4363
▁drink	-4364
▁enjoy	-4365
▁escap	-4366
▁exert	-4367
▁faint	-4368
▁glass	-4369
▁gloom	-4370
▁hatch	-4371
▁heave	-4372
▁kings	-4373
▁lungs	-4374
▁magic	-4375
▁marks	-4376
▁mould	-4377
▁moved	-4378
▁piece	-4379
▁quant	-4380
▁reven	-4381
▁rocks	-4382
▁screw	-4383
▁shake	-4384
▁spray	-4385
▁stock	-4386
▁threw	-4387
▁toler	-4388
▁vague	-4389
linging	-4390
looking	-4391
ressing	-4392
▁Accord	-4393
▁Coffin	-4394
▁Europe	-4395
▁action	-4396
▁butter	-4397
▁cathar	-4398
▁contri	-4399
▁corner	-4400
▁dinner	-4401
▁exists	-4402
▁factor	-4403
▁fierce	-4404
▁flames	-4405
▁helped	-4406
▁honest	-4407
▁paused	-4408
▁plenty	-4409
▁refund	-4410
▁severe	-4411
▁shadow	-4412
▁spouts	-4413
▁stroke	-4414
▁suspic	-4415
▁tattoo	-4416
▁transp	-4417
▁virtue	-4418
▁whaler	-4419
▁yonder	-4420
Exercise	-4421
▁Another	-4422
▁barrels	-4423
▁careful	-4424
▁carries	-4425
▁conduct	-4426
▁created	-4427
▁cunning	-4428
▁desires	-4429
▁dragged	-4430
▁earthly	-4431
▁heavens	-4432
▁madness	-4433
▁mariner	-4434
▁moments	-4435
▁opening	-4436
▁passion	-4437
▁permiss	-4438
▁privile	-4439
▁society	-4440
▁steward	-4441
▁tackles	-4442
▁accompan	-4443
▁analytic	-4444
▁appeared	-4445
▁breaking	-4446
▁comprehe	-4447
▁correspo	-4448
▁crossing	-4449
▁dropping	-4450
▁elephant	-4451
▁inferior	-4452
▁interpre	-4453
▁likewise	-4454
▁perceive	-4455
▁perilous	-4456
▁properly	-4457
▁psychiat	-4458
▁subjects	-4459
▁theories	-4460
▁Meanwhile	-4461
▁apparatus	-4462
▁commander	-4463
▁connected	-4464
▁furnished	-4465
▁immediate	-4466
▁integrals	-4467
▁neurotics	-4468
▁phenomena	-4469
▁principle	-4470
▁sentiment	-4471
▁starboard	-4472
▁assistance	-4473
▁confidence	-4474
▁horizontal	-4475
▁indirectly	-4476
▁marvellous	-4477
▁spermaceti	-4478
▁tremendous	-4479
▁Convergence	-4480
▁exceedingly	-4481
▁independent	-4482
▁observations	-4483
▁unaccountable	-4484
OU	-4485
:1]	-4486
All	-4487
Boy	-4488
ams	-4489
hal	-4490
jah	-4491
mor	-4492
ods	-4493
ork	-4494
▁Ah	-4495
▁Hy	-4496
▁Pr	-4497
▁Ye	-4498
▁ty	-4499
anks	-4500
aven	-4501
bers	-4502
cial	-4503
eree	-4504
icks	-4505
just	-4506
plex	-4507
rees	-4508
unte	-4509
uper	-4510
vern	-4511
well	-4512
▁Cet	-4513
▁Har	-4514
▁Her	-4515
▁III	-4516
▁Lap	-4517
▁Med	-4518
▁PRO	-4519
▁ado	-4520
▁aut	-4521
▁bid	-4522
▁cro	-4523
▁dru	-4524
▁eat	-4525
▁err	-4526
▁fem	-4527
▁fly	-4528
▁hit	-4529
▁hue	-4530
▁inn	-4531
▁mir	-4532
▁nav	-4533
▁tax	-4534
▁tem	-4535
▁woo	-4536
ament	-4537
arest	-4538
igned	-4539
ishes	-4540
itted	-4541
knife	-4542
licit	-4543
lijah	-4544
ondon	-4545
otted	-4546
spect	-4547
umped	-4548
vings	-4549
▁Aust	-4550
▁Inst	-4551
▁Line	-4552
▁Span	-4553
▁ages	-4554
▁asce	-4555
▁aver	-4556
▁binn	-4557
▁bubb	-4558
▁bull	-4559
▁clim	-4560
▁clin	-4561
▁dumb	-4562
▁dust	-4563
▁emer	-4564
▁exte	-4565
▁girl	-4566
▁hill	-4567
▁inch	-4568
▁lads	-4569
▁loss	-4570
▁male	-4571
▁mill	-4572
▁news	-4573
▁pall	-4574
▁sank	-4575
▁scor	-4576
▁slid	-4577
▁soot	-4578
▁tast	-4579
▁text	-4580
▁unex	-4581
called	-4582
itated	-4583
outher	-4584
▁Loose	-4585
▁avail	-4586
▁avoid	-4587
▁broke	-4588
▁deriv	-4589
▁indul	-4590
▁knife	-4591
▁langu	-4592
▁minds	-4593
▁names	-4594
▁oblig	-4595
▁offer	-4596
▁pagan	-4597
▁pains	-4598
▁palms	-4599
▁prair	-4600
▁pumps	-4601
▁reach	-4602
▁vapor	-4603
▁waist	-4604
▁weary	-4605
▁woman	-4606
umbling	-4607
▁Island	-4608
▁London	-4609
▁buried	-4610
▁caused	-4611
▁choose	-4612
▁compan	-4613
▁copies	-4614
▁descri	-4615
▁devils	-4616
▁expand	-4617
▁firmly	-4618
▁highly	-4619
▁induce	-4620
▁infant	-4621
▁lively	-4622
▁marble	-4623
▁medium	-4624
▁monkey	-4625
▁nearer	-4626
▁partic	-4627
▁partly	-4628
▁penetr	-4629
▁perman	-4630
▁please	-4631
▁preced	-4632
▁pulpit	-4633
▁pushed	-4634
▁remind	-4635
▁rushed	-4636
▁sounds	-4637
▁strain	-4638
▁summer	-4639
▁threat	-4640
▁utmost	-4641
analyses	-4642
▁Section	-4643
▁assumed	-4644
▁boiling	-4645
▁central	-4646
▁circles	-4647
▁clearly	-4648
▁driving	-4649
▁earlier	-4650
▁endless	-4651
▁entered	-4652
▁fashion	-4653
▁frantic	-4654
▁hearing	-4655
▁heaving	-4656
▁knowing	-4657
▁limited	-4658
▁meeting	-4659
▁monoman	-4660
▁offered	-4661
▁officer	-4662
▁prolong	-4663
▁related	-4664
▁removed	-4665
▁replace	-4666
▁respons	-4667
▁rushing	-4668
▁secured	-4669
▁settled	-4670
▁streets	-4671
▁support	-4672
▁thereby	-4673
▁unusual	-4674
▁accident	-4675
▁binnacle	-4676
▁contrary	-4677
▁extraord	-4678
▁features	-4679
▁immortal	-4680
▁incident	-4681
▁platform	-4682
▁pointing	-4683
▁produced	-4684
▁property	-4685
▁reaching	-4686
▁resolved	-4687
▁surprise	-4688
▁watching	-4689
▁abandoned	-4690
▁affection	-4691
▁apprehens	-4692
▁developed	-4693
▁everybody	-4694
▁excellent	-4695
▁exclaimed	-4696
▁ignorance	-4697
▁intellect	-4698
▁invisible	-4699
▁latitudes	-4700
▁perceived	-4701
▁presently	-4702
▁teachings	-4703
▁LibreTexts	-4704
▁associated	-4705
▁assumption	-4706
▁comparison	-4707
▁connection	-4708
▁convenient	-4709
▁subsequent	-4710
▁disappeared	-4711
▁possibility	-4712
▁difficulties	-4713
▁occasionally	-4714
11	-4715
22	-4716
7]	-4717
ES	-4718
Mr	-4719
oa	-4720
pi	-4721
!”—	-4722
.2.	-4723
ece	-4724
ham	-4725
lad	-4726
now	-4727
pie	-4728
uoy	-4729
vas	-4730
▁25	-4731
▁Bl	-4732
▁Em	-4733
▁OR	-4734
Thou	-4735
ctic	-4736
hest	-4737
iles	-4738
ival	-4739
leet	-4740
olar	-4741
olio	-4742
ompl	-4743
otch	-4744
rica	-4745
road	-4746
sued	-4747
vels	-4748
▁192	-4749
▁App	-4750
▁Fin	-4751
▁Had	-4752
▁Our	-4753
▁Tun	-4754
▁awe	-4755
▁bew	-4756
▁dry	-4757
▁ego	-4758
▁fie	-4759
▁foe	-4760
▁gay	-4761
▁gle	-4762
▁jun	-4763
▁lod	-4764
▁nay	-4765
▁ren	-4766
▁unb	-4767
acity	-4768
agues	-4769
elled	-4770
ested	-4771
inous	-4772
olent	-4773
rying	-4774
ships	-4775
uming	-4776
unger	-4777
▁John	-4778
▁Town	-4779
▁ange	-4780
▁bale	-4781
▁buck	-4782
▁craw	-4783
▁food	-4784
▁fulf	-4785
▁hail	-4786
▁hate	-4787
▁hell	-4788
▁inno	-4789
▁ling	-4790
▁murm	-4791
▁obli	-4792
▁prey	-4793
▁rust	-4794
▁sand	-4795
▁send	-4796
▁shut	-4797
▁star	-4798
▁toil	-4799
irable	-4800
ishery	-4801
liness	-4802
ograph	-4803
utable	-4804
▁Ramad	-4805
▁Still	-4806
▁alike	-4807
▁allow	-4808
▁allus	-4809
▁block	-4810
▁brief	-4811
▁engra	-4812
▁flank	-4813
▁humor	-4814
▁impat	-4815
▁inner	-4816
▁irres	-4817
▁moody	-4818
▁naked	-4819
▁phase	-4820
▁phren	-4821
▁piled	-4822
▁realm	-4823
▁rolls	-4824
▁seven	-4825
▁shook	-4826
▁shown	-4827
▁slack	-4828
▁splin	-4829
▁style	-4830
▁title	-4831
▁token	-4832
▁weeks	-4833
▁wrong	-4834
▁youth	-4835
bergris	-4836
example	-4837
▁adults	-4838
▁anyone	-4839
▁assert	-4840
▁begins	-4841
▁calmly	-4842
▁canvas	-4843
▁chased	-4844
▁church	-4845
▁closed	-4846
▁comply	-4847
▁corpse	-4848
▁curios	-4849
▁deemed	-4850
▁design	-4851
▁desire	-4852
▁determ	-4853
▁eBooks	-4854
▁employ	-4855
▁enchan	-4856
▁glided	-4857
▁handle	-4858
▁letter	-4859
▁lifted	-4860
▁locked	-4861
▁memory	-4862
▁mostly	-4863
▁oceans	-4864
▁prepar	-4865
▁pulled	-4866
▁resist	-4867
▁secure	-4868
▁shared	-4869
▁sprang	-4870
▁stated	-4871
▁strang	-4872
▁subtle	-4873
▁theirs	-4874
▁towing	-4875
▁triump	-4876
▁tumult	-4877
▁undert	-4878
▁unseen	-4879
▁whence	-4880
▁window	-4881
▁worked	-4882
▁Whaling	-4883
▁accompl	-4884
▁aspects	-4885
▁calling	-4886
▁capture	-4887
▁century	-4888
▁courage	-4889
▁current	-4890
▁darting	-4891
▁deliber	-4892
▁fingers	-4893
▁forming	-4894
▁leading	-4895
▁leaping	-4896
▁located	-4897
▁mistake	-4898
▁mounted	-4899
▁noticed	-4900
▁oarsman	-4901
▁prevent	-4902
▁receive	-4903
▁retreat	-4904
▁revenge	-4905
▁shadows	-4906
▁tempest	-4907
▁travell	-4908
▁treated	-4909
▁unearth	-4910
▁wonders	-4911
▁writing	-4912
▁Porpoise	-4913
▁achieved	-4914
▁approach	-4915
▁combined	-4916
▁conclude	-4917
▁constant	-4918
▁demonstr	-4919
▁departed	-4920
▁elements	-4921
▁endeavor	-4922
▁horrible	-4923
▁inclined	-4924
▁institut	-4925
▁involunt	-4926
▁measures	-4927
▁presence	-4928
▁quantity	-4929
▁relation	-4930
▁silently	-4931
▁slightly	-4932
▁terrific	-4933
▁wrinkled	-4934
▁wrinkles	-4935
▁analogous	-4936
▁confident	-4937
▁continual	-4938
▁customary	-4939
▁education	-4940
▁interrupt	-4941
▁meanwhile	-4942
▁perfectly	-4943
▁receiving	-4944
▁shoulders	-4945
▁succeeded	-4946
▁superstit	-4947
▁swallowed	-4948
▁tormented	-4949
▁universal	-4950
▁integrable	-4951
▁substitute	-4952
▁approaching	-4953
▁authorities	-4954
▁description	-4955
▁experienced	-4956
▁explanation	-4957
▁distributing	-4958
▁consideration	-4959
2]	-4960
3,	-4961
AG	-4962
EM	-4963
We	-4964
ok	-4965
py	-4966
uf	-4967
).—	-4968
:2]	-4969
ANT	-4970
Who	-4971
aks	-4972
alo	-4973
ann	-4974
arc	-4975
ave	-4976
bal	-4977
bow	-4978
boy	-4979
ees	-4980
ett	-4981
ext	-4982
hor	-4983
isl	-4984
iti	-4985
jud	-4986
lam	-4987
oup	-4988
pse	-4989
uit	-4990
uvi	-4991
was	-4992
wed	-4993
▁28	-4994
▁Sy	-4995
▁bi	-4996
▁py	-4997
airs	-4998
angs	-4999
away	-5000
bbed	-5001
book	-5002
cean	-5003
hand	-5004
illy	-5005
ites	-5006
noon	-5007
othe	-5008
then	-5009
ucid	-5010
udge	-5011
vast	-5012
xter	-5013
▁188	-5014
▁190	-5015
▁Car	-5016
▁Del	-5017
▁Den	-5018
▁Ere	-5019
▁Sam	-5020
▁Sol	-5021
▁Sub	-5022
▁agg	-5023
▁amb	-5024
▁aud	-5025
▁due	-5026
▁fix	-5027
▁key	-5028
▁odd	-5029
▁pin	-5030
▁rob	-5031
▁scr	-5032
▁sed	-5033
▁tig	-5034
acked	-5035
ators	-5036
bound	-5037
epers	-5038
house	-5039
ining	-5040
luded	-5041
oning	-5042
rated	-5043
sided	-5044
▁Doub	-5045
▁Manx	-5046
▁Most	-5047
▁Pres	-5048
▁Sund	-5049
▁cask	-5050
▁cere	-5051
▁clos	-5052
▁coff	-5053
▁diss	-5054
▁dost	-5055
▁enem	-5056
▁flat	-5057
▁herd	-5058
▁loom	-5059
▁milk	-5060
▁prec	-5061
▁pron	-5062
▁pure	-5063
▁rain	-5064
▁rout	-5065
▁safe	-5066
▁size	-5067
▁tore	-5068
▁trop	-5069
▁vict	-5070
▁wing	-5071
enance	-5072
ensive	-5073
herent	-5074
liance	-5075
omical	-5076
owsers	-5077
ulking	-5078
vering	-5079
▁Every	-5080
▁Greek	-5081
▁arise	-5082
▁aware	-5083
▁bears	-5084
▁capst	-5085
▁catch	-5086
▁compl	-5087
▁crazy	-5088
▁domin	-5089
▁dying	-5090
▁etern	-5091
▁frost	-5092
▁impro	-5093
▁layer	-5094
▁named	-5095
▁recon	-5096
▁shudd	-5097
▁split	-5098
▁squee	-5099
▁stret	-5100
▁stubb	-5101
▁swear	-5102
▁tempt	-5103
▁usage	-5104
▁usual	-5105
▁wreck	-5106
ception	-5107
hearted	-5108
ouncing	-5109
ressive	-5110
thought	-5111
utation	-5112
▁Consid	-5113
▁Elijah	-5114
▁Father	-5115
▁Virgin	-5116
▁altern	-5117
▁beings	-5118
▁bitter	-5119
▁carved	-5120
▁damage	-5121
▁dexter	-5122
▁effort	-5123
▁finger	-5124
▁govern	-5125
▁insult	-5126
▁ladies	-5127
▁leaned	-5128
▁naught	-5129
▁opened	-5130
▁remote	-5131
▁roared	-5132
▁seaman	-5133
▁served	-5134
▁silver	-5135
▁sooner	-5136
▁stages	-5137
▁states	-5138
▁street	-5139
▁struct	-5140
▁strugg	-5141
▁tiller	-5142
▁waking	-5143
iousness	-5144
iversity	-5145
▁affairs	-5146
▁anatomy	-5147
▁bounded	-5148
▁chanced	-5149
▁changed	-5150
▁conceit	-5151
▁contrad	-5152
▁convers	-5153
▁demands	-5154
▁descend	-5155
▁discern	-5156
▁dischar	-5157
▁divided	-5158
▁equally	-5159
▁essence	-5160
▁fathoms	-5161
▁fearful	-5162
▁gliding	-5163
▁greatly	-5164
▁growing	-5165
▁hideous	-5166
▁induced	-5167
▁lighted	-5168
▁nations	-5169
▁outside	-5170
▁planted	-5171
▁proport	-5172
▁sinking	-5173
▁usually	-5174
▁volunte	-5175
formation	-5176
▁Exercise	-5177
▁advanced	-5178
▁attitude	-5179
▁bringing	-5180
▁ignorant	-5181
▁infinite	-5182
▁isolated	-5183
▁latitude	-5184
▁maintain	-5185
▁majority	-5186
▁moreover	-5187
▁murderer	-5188
▁obtained	-5189
▁occurred	-5190
▁overcome	-5191
▁pleasure	-5192
▁research	-5193
▁retained	-5194
▁sciences	-5195
▁singular	-5196
▁sounding	-5197
▁starting	-5198
▁supplied	-5199
▁swinging	-5200
▁trowsers	-5201
▁Functions	-5202
▁breakfast	-5203
▁carefully	-5204
▁centuries	-5205
▁curiosity	-5206
▁destroyed	-5207
▁disciples	-5208
▁infantile	-5209
▁ponderous	-5210
▁prolonged	-5211
▁questions	-5212
▁remaining	-5213
▁uncertain	-5214
▁Definition	-5215
▁Psychology	-5216
▁accordance	-5217
▁applicable	-5218
▁eventually	-5219
▁invariably	-5220
▁maintained	-5221
▁mysterious	-5222
▁phenomenon	-5223
▁suggestion	-5224
▁surprising	-5225
▁discoveries	-5226
▁therapeutic	-5227
▁organization	-5228
.,	-5229
9]	-5230
Do	-5231
II	-5232
IM	-5233
Is	-5234
My	-5235
gs	-5236
ox	-5237
rs	-5238
uv	-5239
:3]	-5240
Ego	-5241
Now	-5242
Sir	-5243
aff	-5244
asc	-5245
cer	-5246
his	-5247
isk	-5248
off	-5249
osp	-5250
pet	-5251
rus	-5252
sec	-5253
she	-5254
ste	-5255
umn	-5256
▁24	-5257
▁4.	-5258
▁Cl	-5259
▁ax	-5260
:11]	-5261
Ahab	-5262
anim	-5263
ares	-5264
ases	-5265
cher	-5266
fold	-5267
lets	-5268
loat	-5269
ocks	-5270
oint	-5271
reci	-5272
uate	-5273
upon	-5274
vity	-5275
when	-5276
▁Ant	-5277
▁Bur	-5278
▁Cab	-5279
▁Fle	-5280
▁Mrs	-5281
▁Sal	-5282
▁YOU	-5283
▁ant	-5284
▁apt	-5285
▁bal	-5286
▁cod	-5287
▁cup	-5288
▁ela	-5289
▁hom	-5290
▁jer	-5291
▁lip	-5292
▁mas	-5293
▁nin	-5294
▁omn	-5295
▁rib	-5296
▁san	-5297
▁sna	-5298
▁via	-5299
▁wel	-5300
after	-5301
agger	-5302
clock	-5303
ellow	-5304
icien	-5305
iture	-5306
ounce	-5307
ourse	-5308
ouses	-5309
ramid	-5310
stood	-5311
uated	-5312
▁Hall	-5313
▁Life	-5314
▁Many	-5315
▁Take	-5316
▁West	-5317
▁baby	-5318
▁caps	-5319
▁clam	-5320
▁clum	-5321
▁dawn	-5322
▁diag	-5323
▁evil	-5324
▁foul	-5325
▁hero	-5326
▁lock	-5327
▁meat	-5328
▁muff	-5329
▁prud	-5330
▁puzz	-5331
▁rail	-5332
▁salt	-5333
▁scat	-5334
▁snug	-5335
▁stay	-5336
▁wine	-5337
▁yard	-5338
atives	-5339
ements	-5340
eneral	-5341
ernsey	-5342
ighted	-5343
lected	-5344
lifted	-5345
ointed	-5346
struct	-5347
umbled	-5348
▁Black	-5349
▁adequ	-5350
▁ashes	-5351
▁barbs	-5352
▁bench	-5353
▁boots	-5354
▁calls	-5355
▁canal	-5356
▁entit	-5357
▁excit	-5358
▁favor	-5359
▁grasp	-5360
▁hears	-5361
▁hints	-5362
▁image	-5363
▁instr	-5364
▁isles	-5365
▁limit	-5366
▁links	-5367
▁liter	-5368
▁local	-5369
▁noise	-5370
▁north	-5371
▁owner	-5372
▁paper	-5373
▁party	-5374
▁prete	-5375
▁proud	-5376
▁refle	-5377
▁remot	-5378
▁sadly	-5379
▁slain	-5380
▁spade	-5381
▁spars	-5382
▁stars	-5383
▁stone	-5384
▁stump	-5385
▁vital	-5386
licable	-5387
ndering	-5388
outhern	-5389
▁Austri	-5390
▁Bunger	-5391
▁Denote	-5392
▁Derick	-5393
▁During	-5394
▁France	-5395
▁Heaven	-5396
▁Quaker	-5397
▁absent	-5398
▁afloat	-5399
▁assist	-5400
▁bowels	-5401
▁denote	-5402
▁depths	-5403
▁eating	-5404
▁edited	-5405
▁envelo	-5406
▁fitted	-5407
▁ginger	-5408
▁happen	-5409
▁heaved	-5410
▁horror	-5411
▁insist	-5412
▁landed	-5413
▁leaped	-5414
▁legisl	-5415
▁lesson	-5416
▁liable	-5417
▁lonely	-5418
▁malice	-5419
▁manned	-5420
▁pieces	-5421
▁prelim	-5422
▁prophe	-5423
▁report	-5424
▁scenes	-5425
▁search	-5426
▁serene	-5427
▁settle	-5428
▁sights	-5429
▁tranqu	-5430
▁unlike	-5431
▁wicked	-5432
essional	-5433
▁History	-5434
▁Laplace	-5435
▁Manxman	-5436
▁Perhaps	-5437
▁Ramadan	-5438
▁Referee	-5439
▁belongs	-5440
▁blanket	-5441
▁burning	-5442
▁capstan	-5443
▁compact	-5444
▁contain	-5445
▁crossed	-5446
▁despair	-5447
▁efforts	-5448
▁factors	-5449
▁falling	-5450
▁fellows	-5451
▁fifteen	-5452
▁handful	-5453
▁howling	-5454
▁islands	-5455
▁methods	-5456
▁mission	-5457
▁mortals	-5458
▁motions	-5459
▁mystery	-5460
▁obliged	-5461
▁painted	-5462
▁product	-5463
▁prophet	-5464
▁pyramid	-5465
▁resting	-5466
▁seeking	-5467
▁service	-5468
▁setting	-5469
▁sleeper	-5470
▁spirits	-5471
▁student	-5472
▁symptom	-5473
▁tossing	-5474
▁voyages	-5475
▁warning	-5476
▁Guernsey	-5477
▁acquaint	-5478
▁archange	-5479
▁bursting	-5480
▁creation	-5481
▁findings	-5482
▁interior	-5483
▁internal	-5484
▁modified	-5485
▁murmured	-5486
▁prospect	-5487
▁relieved	-5488
▁shoulder	-5489
▁spouting	-5490
▁strictly	-5491
▁tapering	-5492
▁ultimate	-5493
ographical	-5494
▁According	-5495
▁ambergris	-5496
▁doubtless	-5497
▁downwards	-5498
▁elsewhere	-5499
▁enchanted	-5500
▁exceeding	-5501
▁premature	-5502
▁protected	-5503
▁spiritual	-5504
▁strongest	-5505
▁unearthly	-5506
▁vengeance	-5507
▁University	-5508
▁directions	-5509
▁incredible	-5510
▁lengthwise	-5511
▁permission	-5512
▁Unconscious	-5513
▁countenance	-5514
▁indifferent	-5515
▁interesting	-5516
▁interpreted	-5517
▁prohibition	-5518
▁significant	-5519
▁constitution	-5520
▁distribution	-5521
▁intellectual	-5522
▁extraordinary	-5523
▁Psychoanalysis	-5524
As	-5525
IN	-5526
If	-5527
RA	-5528
So	-5529
dy	-5530
”;	-5531
:8]	-5532
BLE	-5533
Not	-5534
Pro	-5535
ads	-5536
eff	-5537
emb	-5538
ggy	-5539
hew	-5540
hun	-5541
ima	-5542
lar	-5543
mas	-5544
ogs	-5545
oke	-5546
oop	-5547
rid	-5548
rim	-5549
sue	-5550
une	-5551
who	-5552
why	-5553
xim	-5554
▁29	-5555
▁Bo	-5556
▁Ge	-5557
▁NO	-5558
▁Re	-5559
▁Sw	-5560
Come	-5561
Head	-5562
Post	-5563
aths	-5564
bitr	-5565
boam	-5566
buoy	-5567
city	-5568
emor	-5569
eted	-5570
iate	-5571
iffs	-5572
leep	-5573
mosp	-5574
ndec	-5575
psed	-5576
seus	-5577
unch	-5578
ypho	-5579
▁191	-5580
▁Equ	-5581
▁Jan	-5582
▁Ori	-5583
▁Sat	-5584
▁Thr	-5585
▁Use	-5586
▁Was	-5587
▁fer	-5588
▁hol	-5589
▁lid	-5590
▁lot	-5591
▁lou	-5592
▁oft	-5593
▁sem	-5594
▁tro	-5595
▁van	-5596
Avast	-5597
Super	-5598
Where	-5599
acles	-5600
alley	-5601
arden	-5602
ashes	-5603
asper	-5604
dling	-5605
iable	-5606
inate	-5607
ipped	-5608
irich	-5609
liest	-5610
msman	-5611
opard	-5612
orses	-5613
ounds	-5614
sails	-5615
thern	-5616
umber	-5617
uvier	-5618
▁Does	-5619
▁Hand	-5620
▁Hark	-5621
▁High	-5622
▁Jero	-5623
▁Mass	-5624
▁Pers	-5625
▁Ship	-5626
▁Stud	-5627
▁Turk	-5628
▁abst	-5629
▁bare	-5630
▁brid	-5631
▁cens	-5632
▁chat	-5633
▁comb	-5634
▁date	-5635
▁dear	-5636
▁dish	-5637
▁fare	-5638
▁frig	-5639
▁fund	-5640
▁join	-5641
▁lect	-5642
▁lege	-5643
▁lift	-5644
▁myth	-5645
▁nois	-5646
▁obey	-5647
▁peep	-5648
▁pier	-5649
▁pill	-5650
▁quad	-5651
▁rich	-5652
▁spar	-5653
▁tamb	-5654
▁tink	-5655
▁unct	-5656
▁unim	-5657
▁unne	-5658
▁verd	-5659
▁vice	-5660
▁waif	-5661
▁warp	-5662
▁wore	-5663
fluous	-5664
iments	-5665
ouched	-5666
ourine	-5667
ouring	-5668
ulting	-5669
utiful	-5670
▁Again	-5671
▁Meets	-5672
▁North	-5673
▁Ocean	-5674
▁Polar	-5675
▁Undec	-5676
▁Would	-5677
▁adapt	-5678
▁alleg	-5679
▁aught	-5680
▁backs	-5681
▁birds	-5682
▁blast	-5683
▁chair	-5684
▁check	-5685
▁crowd	-5686
▁daily	-5687
▁delir	-5688
▁dense	-5689
▁depth	-5690
▁dived	-5691
▁finds	-5692
▁fleet	-5693
▁forge	-5694
▁fount	-5695
▁guilt	-5696
▁herds	-5697
▁hoops	-5698
▁liber	-5699
▁mixed	-5700
▁neigh	-5701
▁press	-5702
▁raise	-5703
▁remor	-5704
▁revel	-5705
▁secre	-5706
▁shows	-5707
▁snuff	-5708
▁spear	-5709
▁spend	-5710
▁taste	-5711
▁vener	-5712
▁verte	-5713
▁vivid	-5714
▁wants	-5715
▁wharf	-5716
arwhale	-5717
batross	-5718
ilities	-5719
ivering	-5720
racting	-5721
▁Commod	-5722
▁Cuvier	-5723
▁Fleece	-5724
▁Trench	-5725
▁advice	-5726
▁arbitr	-5727
▁atmosp	-5728
▁baleen	-5729
▁burden	-5730
▁chains	-5731
▁closer	-5732
▁clouds	-5733
▁confir	-5734
▁contro	-5735
▁cursed	-5736
▁defect	-5737
▁encoun	-5738
▁exclus	-5739
▁floats	-5740
▁forces	-5741
▁hearse	-5742
▁holder	-5743
▁inquir	-5744
▁ladder	-5745
▁loaded	-5746
▁lovely	-5747
▁member	-5748
▁nailed	-5749
▁nights	-5750
▁office	-5751
▁parent	-5752
▁permit	-5753
▁picked	-5754
▁pocket	-5755
▁repose	-5756
▁smells	-5757
▁smooth	-5758
▁square	-5759
▁subter	-5760
▁swells	-5761
▁tongue	-5762
▁valley	-5763
▁welded	-5764
▁winter	-5765
irichlet	-5766
ologists	-5767
▁allowed	-5768
▁applies	-5769
▁arising	-5770
▁blessed	-5771
▁deliver	-5772
▁desired	-5773
▁drowned	-5774
▁elastic	-5775
▁escaped	-5776
▁exasper	-5777
▁furnish	-5778
▁glimpse	-5779
▁herself	-5780
▁include	-5781
▁letters	-5782
▁locally	-5783
▁motives	-5784
▁oblique	-5785
▁outward	-5786
▁passeng	-5787
▁prairie	-5788
▁produce	-5789
▁pursued	-5790
▁reading	-5791
▁replied	-5792
▁schools	-5793
▁seizing	-5794
▁shipped	-5795
▁singing	-5796
▁smaller	-5797
▁straits	-5798
▁sunrise	-5799
▁suspect	-5800
▁swallow	-5801
▁theorem	-5802
▁trouble	-5803
▁unspeak	-5804
▁upright	-5805
▁venture	-5806
▁wanting	-5807
▁Although	-5808
▁Jeroboam	-5809
▁analysts	-5810
▁assuming	-5811
▁barbaric	-5812
▁communic	-5813
▁compared	-5814
▁constern	-5815
▁demanded	-5816
▁destined	-5817
▁distrust	-5818
▁domestic	-5819
▁elevated	-5820
▁entitled	-5821
▁fastened	-5822
▁glancing	-5823
▁helmsman	-5824
▁hoisting	-5825
▁hospital	-5826
▁informed	-5827
▁inherent	-5828
▁involved	-5829
▁overlook	-5830
▁purposes	-5831
▁replaced	-5832
▁requires	-5833
▁reserved	-5834
▁shipmate	-5835
▁smallest	-5836
▁steadily	-5837
▁steering	-5838
▁striving	-5839
▁throwing	-5840
▁unctuous	-5841
▁vocation	-5842
▁beautiful	-5843
▁beholding	-5844
▁belonging	-5845
▁blackness	-5846
▁commotion	-5847
▁desperate	-5848
▁emotional	-5849
▁endeavors	-5850
▁explained	-5851
▁identical	-5852
▁induction	-5853
▁monstrous	-5854
▁narrative	-5855
▁observing	-5856
▁permanent	-5857
▁proceeded	-5858
▁standards	-5859
▁structure	-5860
▁substitut	-5861
▁technical	-5862
▁temporary	-5863
▁whispered	-5864
▁withstand	-5865
▁Undeclared	-5866
▁collection	-5867
▁concluding	-5868
▁historical	-5869
▁increasing	-5870
▁infallibly	-5871
▁introduced	-5872
▁monomaniac	-5873
▁occasional	-5874
▁successful	-5875
▁tambourine	-5876
▁tumultuous	-5877
▁understood	-5878
▁distributed	-5879
▁integration	-5880
▁maintaining	-5881
▁opportunity	-5882
▁straightway	-5883
▁superfluous	-5884
▁temporarily	-5885
▁associations	-5886
▁considerably	-5887
▁conversation	-5888
▁particularly	-5889
▁satisfactory	-5890
▁significance	-5891
▁involuntarily	-5892
▁differentiable	-5893
▁manifestations	-5894
.[	-5895
2,	-5896
DE	-5897
Sp	-5898
:6]	-5899
BER	-5900
UTE	-5901
abb	-5902
avo	-5903
aye	-5904
bly	-5905
box	-5906
col	-5907
has	-5908
iny	-5909
ley	-5910
lor	-5911
nee	-5912
pol	-5913
ubs	-5914
wny	-5915
▁22	-5916
▁23	-5917
▁26	-5918
▁31	-5919
▁AN	-5920
▁Cr	-5921
▁Du	-5922
▁Sh	-5923
▁Sm	-5924
▁na	-5925
▁ox	-5926
....	-5927
:10]	-5928
HALE	-5929
bell	-5930
born	-5931
down	-5932
empl	-5933
ends	-5934
eral	-5935
ethe	-5936
gall	-5937
hast	-5938
isco	-5939
kers	-5940
lare	-5941
lime	-5942
loft	-5943
lude	-5944
mark	-5945
mber	-5946
mind	-5947
mony	-5948
odox	-5949
pole	-5950
pres	-5951
pret	-5952
race	-5953
uded	-5954
uish	-5955
wood	-5956
▁Ass	-5957
▁Dan	-5958
▁Gay	-5959
▁Hur	-5960
▁Mid	-5961
▁Old	-5962
▁Rem	-5963
▁Sag	-5964
▁Sch	-5965
▁Tah	-5966
▁Tem	-5967
▁Tit	-5968
▁Vol	-5969
▁aug	-5970
▁bla	-5971
▁bos	-5972
▁ded	-5973
▁fal	-5974
▁fed	-5975
▁gam	-5976
▁jam	-5977
▁rod	-5978
▁sac	-5979
▁sen	-5980
▁slo	-5981
▁sul	-5982
▁wet	-5983
▁wis	-5984
Stand	-5985
almed	-5986
ander	-5987
burgh	-5988
cence	-5989
chief	-5990
ckets	-5991
ctavo	-5992
erity	-5993
essor	-5994
iance	-5995
ilful	-5996
inent	-5997
issis	-5998
lance	-5999
mates	-6000
ooped	-6001
oring	-6002
reams	-6003
rence	-6004
ulars	-6005
ulate	-6006
unted	-6007
▁Hold	-6008
▁Lima	-6009
▁Long	-6010
▁Next	-6011
▁Stra	-6012
▁Tell	-6013
▁York	-6014
▁beth	-6015
▁bisc	-6016
▁brim	-6017
▁chim	-6018
▁coun	-6019
▁dece	-6020
▁deny	-6021
▁fins	-6022
▁fold	-6023
▁glit	-6024
▁jour	-6025
▁kick	-6026
▁lose	-6027
▁nail	-6028
▁nine	-6029
▁obed	-6030
▁plum	-6031
▁pots	-6032
▁rage	-6033
▁road	-6034
▁rods	-6035
▁sacr	-6036
▁soil	-6037
▁sold	-6038
▁subt	-6039
▁sust	-6040
▁symp	-6041
▁tear	-6042
▁tied	-6043
▁unqu	-6044
▁urge	-6045
▁velo	-6046
▁vial	-6047
▁walk	-6048
▁warn	-6049
▁wave	-6050
▁whip	-6051
▁wont	-6052
▁worn	-6053
ainted	-6054
angled	-6055
arning	-6056
erving	-6057
iating	-6058
icious	-6059
illing	-6060
ivered	-6061
lingly	-6062
morrow	-6063
oresby	-6064
otions	-6065
rained	-6066
resses	-6067
rising	-6068
terday	-6069
uffalo	-6070
uments	-6071
unched	-6072
urable	-6073
ushing	-6074
utions	-6075
▁Among	-6076
▁Grand	-6077
▁Janet	-6078
▁Later	-6079
▁abund	-6080
▁admin	-6081
▁adopt	-6082
▁afore	-6083
▁armed	-6084
▁beget	-6085
▁belie	-6086
▁berth	-6087
▁borne	-6088
▁canoe	-6089
▁canst	-6090
▁coils	-6091
▁dilig	-6092
▁dimin	-6093
▁exhib	-6094
▁feast	-6095
▁flour	-6096
▁flung	-6097
▁fowls	-6098
▁gazed	-6099
▁glist	-6100
▁grief	-6101
▁haven	-6102
▁indef	-6103
▁inexp	-6104
▁limbs	-6105
▁loung	-6106
▁midst	-6107
▁pages	-6108
▁perch	-6109
▁punch	-6110
▁react	-6111
▁scorn	-6112
▁share	-6113
▁skill	-6114
▁spark	-6115
▁spell	-6116
▁spent	-6117
▁steak	-6118
▁steep	-6119
▁strip	-6120
▁stuck	-6121
▁swept	-6122
▁thank	-6123
▁tiger	-6124
▁tooth	-6125
▁twice	-6126
▁vigil	-6127
▁walls	-6128
▁write	-6129
Project	-6130
athered	-6131
gallant	-6132
iciency	-6133
istered	-6134
lusions	-6135
ologist	-6136
renched	-6137
ulating	-6138
▁Before	-6139
▁George	-6140
▁Heidel	-6141
▁Nature	-6142
▁bodies	-6143
▁boldly	-6144
▁breast	-6145
▁choice	-6146
▁clumsy	-6147
▁coiled	-6148
▁compon	-6149
▁connex	-6150
▁doubts	-6151
▁elucid	-6152
▁embark	-6153
▁endure	-6154
▁exclam	-6155
▁favour	-6156
▁female	-6157
▁fields	-6158
▁gather	-6159
▁harbor	-6160
▁horses	-6161
▁hunter	-6162
▁issued	-6163
▁joined	-6164
▁jumped	-6165
▁larger	-6166
▁latent	-6167
▁licens	-6168
▁manage	-6169
▁masses	-6170
▁mildly	-6171
▁parted	-6172
▁paying	-6173
▁played	-6174
▁posted	-6175
▁powers	-6176
▁prejud	-6177
▁profit	-6178
▁proves	-6179
▁reader	-6180
▁reject	-6181
▁retain	-6182
▁stairs	-6183
▁strove	-6184
▁submer	-6185
▁sullen	-6186
▁summit	-6187
▁taught	-6188
▁termin	-6189
▁thread	-6190
▁triang	-6191
▁visual	-6192
▁wanted	-6193
▁weapon	-6194
▁widely	-6195
ableness	-6196
▁Austria	-6197
▁Delight	-6198
▁Fishery	-6199
▁General	-6200
▁Nothing	-6201
▁Perseus	-6202
▁Spanish	-6203
▁abandon	-6204
▁anxious	-6205
▁beating	-6206
▁benefit	-6207
▁breadth	-6208
▁capable	-6209
▁chances	-6210
▁cherish	-6211
▁clothes	-6212
▁comment	-6213
▁congreg	-6214
▁connect	-6215
▁contriv	-6216
▁covered	-6217
▁crooked	-6218
▁depends	-6219
▁direful	-6220
▁disgust	-6221
▁eagerly	-6222
▁equator	-6223
▁excited	-6224
▁feeding	-6225
▁finding	-6226
▁foreign	-6227
▁gaining	-6228
▁heading	-6229
▁healthy	-6230
▁highest	-6231
▁hurried	-6232
▁jeopard	-6233
▁leather	-6234
▁nearest	-6235
▁numbers	-6236
▁painful	-6237
▁pausing	-6238
▁pitched	-6239
▁pleased	-6240
▁plunged	-6241
▁promise	-6242
▁quality	-6243
▁savages	-6244
▁sending	-6245
▁shortly	-6246
▁sliding	-6247
▁stopped	-6248
▁sublime	-6249
▁thither	-6250
▁valiant	-6251
▁whereby	-6252
▁witness	-6253
roduction	-6254
▁Japanese	-6255
▁accounts	-6256
▁addition	-6257
▁admitted	-6258
▁although	-6259
▁articles	-6260
▁attempts	-6261
▁comrades	-6262
▁contempt	-6263
▁creating	-6264
▁directed	-6265
▁downward	-6266
▁everlast	-6267
▁grinning	-6268
▁harmless	-6269
▁headsman	-6270
▁hopeless	-6271
▁hovering	-6272
▁hundreds	-6273
▁hysteria	-6274
▁intended	-6275
▁landsmen	-6276
▁language	-6277
▁mainmast	-6278
▁memories	-6279
▁movement	-6280
▁occupied	-6281
▁positive	-6282
▁powerful	-6283
▁practise	-6284
▁progress	-6285
▁remotest	-6286
▁strained	-6287
▁stranded	-6288
▁stricken	-6289
▁stripped	-6290
▁stubborn	-6291
▁students	-6292
▁substant	-6293
▁tendency	-6294
▁treacher	-6295
▁uplifted	-6296
▁velocity	-6297
ifications	-6298
▁Commodore	-6299
▁accounted	-6300
▁afternoon	-6301
▁appalling	-6302
▁compasses	-6303
▁disorders	-6304
▁elephants	-6305
▁expressed	-6306
▁formation	-6307
▁impartial	-6308
▁interests	-6309
▁justified	-6310
▁medically	-6311
▁murderous	-6312
▁providing	-6313
▁statement	-6314
▁steadfast	-6315
▁venerable	-6316
▁yesterday	-6317
▁activities	-6318
▁calculated	-6319
▁containing	-6320
▁convergent	-6321
▁distribute	-6322
▁experiment	-6323
▁foundation	-6324
▁leviathans	-6325
▁opposition	-6326
▁reasonable	-6327
▁shuddering	-6328
▁situations	-6329
▁appearances	-6330
▁consequence	-6331
▁generations	-6332
▁inclination	-6333
▁intolerable	-6334
▁naturalists	-6335
▁philosopher	-6336
▁preliminary	-6337
▁remorseless	-6338
▁sentimental	-6339
▁theoretical	-6340
▁Nantucketers	-6341
▁accomplished	-6342
▁continuously	-6343
▁philosophers	-6344
▁professional	-6345
▁satisfaction	-6346
▁comparatively	-6347
▁consternation	-6348
▁investigation	-6349
▁physiological	-6350
▁psychoanalyst	-6351
▁superstitious	-6352
)0	-6353
.]	-6354
LL	-6355
ax	-6356
,—“	-6357
Cor	-6358
For	-6359
God	-6360
ICE	-6361
bye	-6362
cot	-6363
dom	-6364
ems	-6365
erc	-6366
evi	-6367
hum	-6368
igw	-6369
ilo	-6370
ims	-6371
ina	-6372
low	-6373
nes	-6374
opp	-6375
pro	-6376
roc	-6377
rog	-6378
tes	-6379
usk	-6380
uss	-6381
xed	-6382
▁2.	-6383
▁21	-6384
▁Gl	-6385
▁Im	-6386
▁Ne	-6387
▁ST	-6388
▁ah	-6389
▁ge	-6390
:12]	-6391
aced	-6392
agon	-6393
amps	-6394
aned	-6395
atra	-6396
band	-6397
bast	-6398
bear	-6399
cied	-6400
esty	-6401
feed	-6402
iard	-6403
ieth	-6404
ieur	-6405
illa	-6406
isen	-6407
ishn	-6408
itch	-6409
lend	-6410
ohog	-6411
omon	-6412
onal	-6413
ostr	-6414
ours	-6415
pipe	-6416
rend	-6417
riet	-6418
rose	-6419
sted	-6420
tons	-6421
ules	-6422
ulty	-6423
vent	-6424
vest	-6425
▁()0	-6426
▁Abs	-6427
▁Col	-6428
▁Des	-6429
▁Him	-6430
▁Jav	-6431
▁Lay	-6432
▁Mer	-6433
▁Pre	-6434
▁Ste	-6435
▁Str	-6436
▁ama	-6437
▁awa	-6438
▁ban	-6439
▁cel	-6440
▁cos	-6441
▁cou	-6442
▁fab	-6443
▁hav	-6444
▁job	-6445
▁lit	-6446
▁miz	-6447
▁oak	-6448
▁org	-6449
▁pip	-6450
▁rad	-6451
▁rig	-6452
▁sag	-6453
▁tid	-6454
▁yea	-6455
ables	-6456
aning	-6457
apple	-6458
aults	-6459
bbing	-6460
bsite	-6461
empor	-6462
ensed	-6463
eries	-6464
eties	-6465
iloqu	-6466
inder	-6467
itate	-6468
psych	-6469
quack	-6470
quity	-6471
ribed	-6472
tless	-6473
water	-6474
▁Cong	-6475
▁Cont	-6476
▁East	-6477
▁Give	-6478
▁Jove	-6479
▁Phil	-6480
▁THIS	-6481
▁Time	-6482
▁Vine	-6483
▁acts	-6484
▁agon	-6485
▁anon	-6486
▁bank	-6487
▁bask	-6488
▁boom	-6489
▁coin	-6490
▁damp	-6491
▁deed	-6492
▁doll	-6493
▁ease	-6494
▁econ	-6495
▁fowl	-6496
▁fury	-6497
▁gird	-6498
▁heel	-6499
▁impe	-6500
▁jets	-6501
▁joke	-6502
▁lake	-6503
▁lash	-6504
▁laug	-6505
▁link	-6506
▁mars	-6507
▁memb	-6508
▁musc	-6509
▁narc	-6510
▁pant	-6511
▁pist	-6512
▁pity	-6513
▁plag	-6514
▁quit	-6515
▁rack	-6516
▁rejo	-6517
▁rows	-6518
▁stim	-6519
▁suit	-6520
▁tide	-6521
▁tomb	-6522
▁tons	-6523
▁tubs	-6524
▁unsu	-6525
▁uses	-6526
▁vest	-6527
▁west	-6528
▁wigw	-6529
▁wilt	-6530
▁yarn	-6531
entous	-6532
estern	-6533
icable	-6534
olland	-6535
orning	-6536
soever	-6537
spring	-6538
thodox	-6539
uality	-6540
urance	-6541
vation	-6542
▁Bible	-6543
▁Ender	-6544
▁Mount	-6545
▁Peter	-6546
▁Somet	-6547
▁Start	-6548
▁Typho	-6549
▁alarm	-6550
▁antic	-6551
▁beast	-6552
▁belly	-6553
▁bowed	-6554
▁build	-6555
▁built	-6556
▁charm	-6557
▁clust	-6558
▁corro	-6559
▁crack	-6560
▁cream	-6561
▁dimly	-6562
▁dwell	-6563
▁fetch	-6564
▁fiend	-6565
▁flash	-6566
▁float	-6567
▁girls	-6568
▁habit	-6569
▁harem	-6570
▁hered	-6571
▁hurry	-6572
▁inhab	-6573
▁inscr	-6574
▁irreg	-6575
▁joint	-6576
▁keels	-6577
▁mason	-6578
▁mercy	-6579
▁merry	-6580
▁milky	-6581
▁moral	-6582
▁onset	-6583
▁paced	-6584
▁paint	-6585
▁panic	-6586
▁persu	-6587
▁pious	-6588
▁poles	-6589
▁pride	-6590
▁resol	-6591
▁rises	-6592
▁ropes	-6593
▁score	-6594
▁seize	-6595
▁shame	-6596
▁skies	-6597
▁sorry	-6598
▁stark	-6599
▁steam	-6600
▁steer	-6601
▁tells	-6602
▁thigh	-6603
▁tight	-6604
▁tongs	-6605
▁tower	-6606
▁trees	-6607
▁trend	-6608
▁tribe	-6609
▁trump	-6610
▁views	-6611
▁woods	-6612
▁yours	-6613
achelor	-6614
bastian	-6615
ificial	-6616
itating	-6617
onsieur	-6618
picuous	-6619
raction	-6620
tically	-6621
ulation	-6622
▁Mapple	-6623
▁Quohog	-6624
▁Samuel	-6625
▁Seeing	-6626
▁Voyage	-6627
▁affect	-6628
▁assure	-6629
▁attach	-6630
▁attent	-6631
▁beauty	-6632
▁belief	-6633
▁blinds	-6634
▁causes	-6635
▁cheese	-6636
▁commer	-6637
▁compet	-6638
▁couldn	-6639
▁critic	-6640
▁crotch	-6641
▁daring	-6642
▁deeply	-6643
▁denied	-6644
▁derive	-6645
▁detail	-6646
▁expend	-6647
▁facing	-6648
▁fourth	-6649
▁frozen	-6650
▁gently	-6651
▁homage	-6652
▁incess	-6653
▁kicked	-6654
▁lashed	-6655
▁lights	-6656
▁listen	-6657
▁lodged	-6658
▁moored	-6659
▁mouths	-6660
▁needle	-6661
▁pacing	-6662
▁plaint	-6663
▁polite	-6664
▁powder	-6665
▁presum	-6666
▁sacred	-6667
▁series	-6668
▁sheets	-6669
▁softly	-6670
▁specul	-6671
▁speech	-6672
▁sphere	-6673
▁spinal	-6674
▁status	-6675
▁steers	-6676
▁supply	-6677
▁tackle	-6678
▁titled	-6679
▁traged	-6680
▁wildly	-6681
ashioned	-6682
istribut	-6683
standing	-6684
▁Charcot	-6685
▁Germany	-6686
▁Mediter	-6687
▁appreci	-6688
▁attacks	-6689
▁chimney	-6690
▁comrade	-6691
▁confess	-6692
▁copying	-6693
▁curated	-6694
▁destroy	-6695
▁details	-6696
▁fancied	-6697
▁grounds	-6698
▁hatches	-6699
▁heathen	-6700
▁hunting	-6701
▁involve	-6702
▁leagues	-6703
▁lifting	-6704
▁lurking	-6705
▁melanch	-6706
▁muffled	-6707
▁needles	-6708
▁organic	-6709
▁pirates	-6710
▁pressed	-6711
▁protect	-6712
▁remixed	-6713
▁roaring	-6714
▁sounded	-6715
▁studies	-6716
▁therapy	-6717
▁twisted	-6718
▁watches	-6719
▁weapons	-6720
▁website	-6721
▁wounded	-6722
pretation	-6723
▁Consider	-6724
▁Scoresby	-6725
▁Vineyard	-6726
▁accursed	-6727
▁affected	-6728
▁affright	-6729
▁ailments	-6730
▁attended	-6731
▁authored	-6732
▁backward	-6733
▁believed	-6734
▁contains	-6735
▁counterp	-6736
▁daylight	-6737
▁describe	-6738
▁detached	-6739
▁dreaming	-6740
▁editions	-6741
▁emotions	-6742
▁explicit	-6743
▁faithful	-6744
▁fearless	-6745
▁feelings	-6746
▁foremost	-6747
▁friendly	-6748
▁gathered	-6749
▁imperial	-6750
▁infernal	-6751
▁instruct	-6752
▁intently	-6753
▁irresist	-6754
▁levelled	-6755
▁mystical	-6756
▁preserve	-6757
▁presumed	-6758
▁probable	-6759
▁sensible	-6760
▁solemnly	-6761
▁somebody	-6762
▁stronger	-6763
▁transfer	-6764
▁vigorous	-6765
▁wretched	-6766
▁Carpenter	-6767
▁Dirichlet	-6768
▁Sebastian	-6769
▁arbitrary	-6770
▁archangel	-6771
▁ascertain	-6772
▁available	-6773
▁cannibals	-6774
▁catharsis	-6775
▁completed	-6776
▁connexion	-6777
▁contempor	-6778
▁converted	-6779
▁convinced	-6780
▁eagerness	-6781
▁extremity	-6782
▁hereafter	-6783
▁impatient	-6784
▁intensity	-6785
▁irregular	-6786
▁malicious	-6787
▁manifests	-6788
▁noiseless	-6789
▁operation	-6790
▁principal	-6791
▁privilege	-6792
▁revolving	-6793
▁scattered	-6794
▁seemingly	-6795
▁sparkling	-6796
▁specially	-6797
▁stretched	-6798
▁submerged	-6799
▁thrusting	-6800
▁traveller	-6801
▁violently	-6802
▁accessible	-6803
▁apparition	-6804
▁compliance	-6805
▁comprehend	-6806
▁descending	-6807
▁displaying	-6808
▁instrument	-6809
▁performing	-6810
▁presenting	-6811
▁projecting	-6812
▁recognised	-6813
▁supplement	-6814
▁throughout	-6815
▁unquestion	-6816
▁whatsoever	-6817
▁Heidelburgh	-6818
▁Psychoanaly	-6819
▁association	-6820
▁comfortable	-6821
▁contrasting	-6822
▁everlasting	-6823
▁imagination	-6824
▁individuals	-6825
▁necessarily	-6826
▁particulars	-6827
▁personality	-6828
▁resistances	-6829
▁suggestions	-6830
▁technically	-6831
▁transparent	-6832
▁unspeakable	-6833
▁astonishment	-6834
▁confidential	-6835
▁developments	-6836
▁incidentally	-6837
▁insufficient	-6838
▁requirements	-6839
▁restrictions	-6840
▁successfully	-6841
▁supernatural	-6842
▁Mediterranean	-6843
▁corresponding	-6844
▁distinguished	-6845
▁considerations	-6846
6,	-6847
:3	-6848
AC	-6849
IG	-6850
JE	-6851
UE	-6852
Up	-6853
VE	-6854
sk	-6855
yt	-6856
11,	-6857
ARR	-6858
Did	-6859
ION	-6860
ITY	-6861
alk	-6862
asp	-6863
asy	-6864
cho	-6865
dri	-6866
eal	-6867
elf	-6868
eur	-6869
lex	-6870
lla	-6871
mma	-6872
mpt	-6873
ois	-6874
oly	-6875
oma	-6876
ott	-6877
owd	-6878
pot	-6879
sac	-6880
two	-6881
urg	-6882
xic	-6883
▁Es	-6884
▁Gr	-6885
▁IV	-6886
▁Pe	-6887
▁TO	-6888
▁dy	-6889
BERG	-6890
Back	-6891
Cook	-6892
Give	-6893
JECT	-6894
Then	-6895
UTEN	-6896
acon	-6897
aped	-6898
arks	-6899
ault	-6900
aves	-6901
bors	-6902
cont	-6903
emin	-6904
enet	-6905
erty	-6906
ffra	-6907
goes	-6908
hale	-6909
hist	-6910
iers	-6911
ifle	-6912
igns	-6913
iron	-6914
irts	-6915
ivot	-6916
liny	-6917
lyph	-6918
nett	-6919
olic	-6920
olph	-6921
onic	-6922
oppa	-6923
orty	-6924
orus	-6925
pass	-6926
poly	-6927
port	-6928
prit	-6929
sect	-6930
snee	-6931
some	-6932
such	-6933
time	-6934
ucks	-6935
ulpt	-6936
ustr	-6937
uter	-6938
uzza	-6939
zard	-6940
▁182	-6941
▁189	-6942
▁ANY	-6943
▁Are	-6944
▁Ber	-6945
▁Cle	-6946
▁Cor	-6947
▁Def	-6948
▁Ice	-6949
▁Its	-6950
▁Out	-6951
▁Red	-6952
▁Sum	-6953
▁Sup	-6954
▁Tow	-6955
▁Van	-6956
▁War	-6957
▁Woe	-6958
▁coc	-6959
▁edd	-6960
▁hap	-6961
▁hem	-6962
▁hes	-6963
▁hey	-6964
▁ing	-6965
▁inj	-6966
▁jew	-6967
▁net	-6968
▁obe	-6969
▁ost	-6970
▁rud	-6971
▁tun	-6972
▁yon	-6973
abled	-6974
about	-6975
angel	-6976
arbor	-6977
arrow	-6978
aving	-6979
chers	-6980
elebr	-6981
henia	-6982
iated	-6983
ierog	-6984
iller	-6985
itors	-6986
matic	-6987
nings	-6988
omach	-6989
ooded	-6990
oping	-6991
orems	-6992
outer	-6993
place	-6994
racts	-6995
riend	-6996
roach	-6997
romed	-6998
spade	-6999
ubble	-7000
ufact	-7001
ulted	-7002
urred	-7003
▁Bern	-7004
▁Brit	-7005
▁Coll	-7006
▁Duke	-7007
▁Have	-7008
▁Head	-7009
▁Mace	-7010
▁Mark	-7011
▁Mart	-7012
▁Noah	-7013
▁Plat	-7014
▁Prop	-7015
▁Tars	-7016
▁Very	-7017
▁WARR	-7018
▁Word	-7019
▁alas	-7020
▁amaz	-7021
▁anom	-7022
▁beer	-7023
▁beha	-7024
▁bits	-7025
▁blew	-7026
▁bran	-7027
▁brit	-7028
▁bump	-7029
▁carc	-7030
▁card	-7031
▁cell	-7032
▁chem	-7033
▁clan	-7034
▁colt	-7035
▁cult	-7036
▁dile	-7037
▁dive	-7038
▁dull	-7039
▁este	-7040
▁exec	-7041
▁fees	-7042
▁fest	-7043
▁file	-7044
▁flee	-7045
▁flow	-7046
▁fond	-7047
▁goal	-7048
▁hurt	-7049
▁inev	-7050
▁isle	-7051
▁knee	-7052
▁lady	-7053
▁lust	-7054
▁mead	-7055
▁mock	-7056
▁nons	-7057
▁note	-7058
▁pace	-7059
▁pine	-7060
▁poet	-7061
▁proc	-7062
▁rasc	-7063
▁reef	-7064
▁rela	-7065
▁resc	-7066
▁ripp	-7067
▁root	-7068
▁runs	-7069
▁sell	-7070
▁stun	-7071
▁summ	-7072
▁tang	-7073
▁tick	-7074
▁ting	-7075
▁unin	-7076
▁veil	-7077
▁wait	-7078
akened	-7079
allers	-7080
coming	-7081
ealand	-7082
erably	-7083
erting	-7084
ffrail	-7085
handed	-7086
idents	-7087
ishnoo	-7088
itters	-7089
master	-7090
ooping	-7091
quacks	-7092
ricted	-7093
ulates	-7094
urther	-7095
▁1.8.1	-7096
▁Arsac	-7097
▁China	-7098
▁Emper	-7099
▁GUTEN	-7100
▁Joppa	-7101
▁Pagan	-7102
▁Paris	-7103
▁Pliny	-7104
▁Shall	-7105
▁Sleet	-7106
▁Think	-7107
▁Those	-7108
▁Trans	-7109
▁Under	-7110
▁WHALE	-7111
▁adult	-7112
▁alien	-7113
▁angle	-7114
▁arose	-7115
▁avast	-7116
▁awake	-7117
▁benev	-7118
▁blade	-7119
▁brown	-7120
▁colle	-7121
▁cruel	-7122
▁cryst	-7123
▁desol	-7124
▁didst	-7125
▁divid	-7126
▁enact	-7127
▁enemy	-7128
▁entry	-7129
▁estim	-7130
▁exter	-7131
▁false	-7132
▁fires	-7133
▁fluid	-7134
▁freed	-7135
▁gleam	-7136
▁grace	-7137
▁happy	-7138
▁hardy	-7139
▁hated	-7140
▁hills	-7141
▁hoist	-7142
▁horns	-7143
▁illum	-7144
▁ineff	-7145
▁judge	-7146
▁keeps	-7147
▁knees	-7148
▁labor	-7149
▁liken	-7150
▁lowly	-7151
▁lurks	-7152
▁match	-7153
▁monot	-7154
▁newly	-7155
▁nostr	-7156
▁overw	-7157
▁pause	-7158
▁phant	-7159
▁pipes	-7160
▁pivot	-7161
▁plane	-7162
▁plays	-7163
▁reply	-7164
▁sheep	-7165
▁shirt	-7166
▁shoal	-7167
▁sidel	-7168
▁slave	-7169
▁slide	-7170
▁snowy	-7171
▁sober	-7172
▁south	-7173
▁spasm	-7174
▁swims	-7175
▁timid	-7176
▁towed	-7177
▁trace	-7178
▁trust	-7179
▁unman	-7180
▁unpre	-7181
▁wakes	-7182
▁weigh	-7183
▁woven	-7184
Theorem	-7185
amental	-7186
cessary	-7187
embered	-7188
emorial	-7189
inction	-7190
landish	-7191
mitting	-7192
oration	-7193
ormally	-7194
sneezes	-7195
tiology	-7196
▁Africa	-7197
▁Almost	-7198
▁Hurrah	-7199
▁Indeed	-7200
▁Mayhew	-7201
▁Temple	-7202
▁admire	-7203
▁agreed	-7204
▁angels	-7205
▁arched	-7206
▁arrive	-7207
▁beware	-7208
▁brains	-7209
▁celebr	-7210
▁congen	-7211
▁desert	-7212
▁divine	-7213
▁domain	-7214
▁failed	-7215
▁folded	-7216
▁forbid	-7217
▁format	-7218
▁hauled	-7219
▁headed	-7220
▁hearth	-7221
▁hearty	-7222
▁hierog	-7223
▁houses	-7224
▁incest	-7225
▁incomp	-7226
▁layman	-7227
▁lurked	-7228
▁nobody	-7229
▁offers	-7230
▁online	-7231
▁parall	-7232
▁pistol	-7233
▁policy	-7234
▁potent	-7235
▁purely	-7236
▁ranged	-7237
▁recomm	-7238
▁regret	-7239
▁relief	-7240
▁remove	-7241
▁render	-7242
▁repeat	-7243
▁resort	-7244
▁rowing	-7245
▁rumors	-7246
▁scream	-7247
▁sculpt	-7248
▁signal	-7249
▁sleepy	-7250
▁specim	-7251
▁storms	-7252
▁sunset	-7253
▁suprem	-7254
▁swings	-7255
▁talked	-7256
▁temper	-7257
▁thence	-7258
▁thrice	-7259
▁throne	-7260
▁traced	-7261
▁travel	-7262
▁united	-7263
▁viciss	-7264
▁wigwam	-7265
▁worthy	-7266
▁wouldn	-7267
Starbuck	-7268
ervation	-7269
ulations	-7270
▁Enderby	-7271
▁Equator	-7272
▁PROJECT	-7273
▁Solomon	-7274
▁Towards	-7275
▁WARRANT	-7276
▁alleged	-7277
▁anguish	-7278
▁anticip	-7279
▁arrange	-7280
▁assured	-7281
▁bellies	-7282
▁biscuit	-7283
▁blasted	-7284
▁bowsman	-7285
▁bubbles	-7286
▁candles	-7287
▁compare	-7288
▁consist	-7289
▁courses	-7290
▁crushed	-7291
▁dancing	-7292
▁dilemma	-7293
▁draught	-7294
▁expense	-7295
▁feather	-7296
▁feature	-7297
▁founded	-7298
▁gallant	-7299
▁glasses	-7300
▁grasped	-7301
▁infidel	-7302
▁inhabit	-7303
▁inquiry	-7304
▁journey	-7305
▁largely	-7306
▁lashing	-7307
▁marvels	-7308
▁neurast	-7309
▁obscure	-7310
▁ordered	-7311
▁peering	-7312
▁perched	-7313
▁pockets	-7314
▁pretend	-7315
▁puberty	-7316
▁regards	-7317
▁regions	-7318
▁rocking	-7319
▁seasons	-7320
▁seeming	-7321
▁shaking	-7322
▁sharing	-7323
▁shrouds	-7324
▁shudder	-7325
▁slipped	-7326
▁snapped	-7327
▁spilled	-7328
▁squares	-7329
▁steered	-7330
▁stepped	-7331
▁stomach	-7332
▁stories	-7333
▁surgeon	-7334
▁surmise	-7335
▁useless	-7336
▁vertebr	-7337
▁visited	-7338
▁walking	-7339
▁welcome	-7340
▁wrapped	-7341
▁wrecked	-7342
oanalysis	-7343
ulkington	-7344
▁Bachelor	-7345
▁Egyptian	-7346
▁Theorems	-7347
▁acquired	-7348
▁bestowed	-7349
▁bowsprit	-7350
▁branches	-7351
▁clinging	-7352
▁concentr	-7353
▁consists	-7354
▁contents	-7355
▁decision	-7356
▁delicate	-7357
▁determin	-7358
▁devilish	-7359
▁disclaim	-7360
▁dividing	-7361
▁dreadful	-7362
▁fatality	-7363
▁grandeur	-7364
▁grasping	-7365
▁gunwales	-7366
▁hammered	-7367
▁handling	-7368
▁hatchway	-7369
▁insisted	-7370
▁intimate	-7371
▁landsman	-7372
▁larboard	-7373
▁mistaken	-7374
▁monsters	-7375
▁nonsense	-7376
▁orthodox	-7377
▁phantoms	-7378
▁proceeds	-7379
▁promised	-7380
▁required	-7381
▁respects	-7382
▁securing	-7383
▁sickness	-7384
▁stopping	-7385
▁taffrail	-7386
▁tattooed	-7387
▁totemism	-7388
▁treating	-7389
▁vitality	-7390
▁weakness	-7391
▁wherever	-7392
▁Doubtless	-7393
▁GUTENBERG	-7394
▁Integrals	-7395
▁Wherefore	-7396
▁allusions	-7397
▁construct	-7398
▁increased	-7399
▁intensely	-7400
▁miserable	-7401
▁moonlight	-7402
▁mountains	-7403
▁obedience	-7404
▁obliquely	-7405
▁popularly	-7406
▁possessed	-7407
▁qualities	-7408
▁regarding	-7409
▁sagacious	-7410
▁snatching	-7411
▁societies	-7412
▁spectacle	-7413
▁strangers	-7414
▁surprised	-7415
▁unnatural	-7416
▁whalebone	-7417
unconscious	-7418
▁acquainted	-7419
▁anatomical	-7420
▁conception	-7421
▁determined	-7422
▁distinctly	-7423
▁excitement	-7424
▁explicitly	-7425
▁glittering	-7426
▁hieroglyph	-7427
▁hysterical	-7428
▁influences	-7429
▁institutes	-7430
▁interested	-7431
▁melancholy	-7432
▁motionless	-7433
▁overlooked	-7434
▁personally	-7435
▁philosophy	-7436
▁portentous	-7437
▁proportion	-7438
▁psychiatry	-7439
▁punishment	-7440
▁recognized	-7441
▁reflection	-7442
▁sensations	-7443
▁separately	-7444
▁surrounded	-7445
▁volunteers	-7446
▁Information	-7447
▁accordingly	-7448
▁ascertained	-7449
▁conclusions	-7450
▁conspicuous	-7451
▁destruction	-7452
▁established	-7453
▁fundamental	-7454
▁inscrutable	-7455
▁intelligent	-7456
▁measureless	-7457
▁peculiarity	-7458
▁practically	-7459
▁recognition	-7460
▁unnecessary	-7461
▁withdrawing	-7462
▁consequences	-7463
▁contrivances	-7464
▁intelligence	-7465
▁mechanically	-7466
▁constitutional	-7467
▁investigations	-7468
▁perpendicularly	-7469
50	-7470
AM	-7471
ET	-7472
Qu	-7473
RI	-7474
SC	-7475
UC	-7476
UT	-7477
bi	-7478
gn	-7479
tw	-7480
▁i	-7481
:5]	-7482
:7]	-7483
Can	-7484
ISH	-7485
Ste	-7486
Tis	-7487
aco	-7488
aid	-7489
ama	-7490
amn	-7491
awn	-7492
bel	-7493
cil	-7494
cru	-7495
dam	-7496
een	-7497
gar	-7498
iot	-7499
lab	-7500
len	-7501
lit	-7502
nat	-7503
nut	-7504
oir	-7505
omb	-7506
rap	-7507
sal	-7508
sex	-7509
ule	-7510
urd	-7511
vet	-7512
wat	-7513
wen	-7514
wre	-7515
▁En	-7516
▁Er	-7517
▁Fe	-7518
▁Lo	-7519
▁RE	-7520
▁Si	-7521
▁cy	-7522
▁um	-7523
Good	-7524
Hast	-7525
Here	-7526
Land	-7527
Pull	-7528
Ship	-7529
Take	-7530
Very	-7531
aces	-7532
adem	-7533
anes	-7534
avig	-7535
ball	-7536
bits	-7537
bles	-7538
coat	-7539
dled	-7540
dles	-7541
east	-7542
ects	-7543
erts	-7544
fety	-7545
four	-7546
heim	-7547
hish	-7548
iary	-7549
icha	-7550
ihil	-7551
ikes	-7552
ilty	-7553
imin	-7554
inds	-7555
lead	-7556
lete	-7557
leul	-7558
luck	-7559
mund	-7560
nces	-7561
nest	-7562
ogen	-7563
orig	-7564
pike	-7565
pses	-7566
reet	-7567
regn	-7568
rift	-7569
ruit	-7570
skin	-7571
stra	-7572
thou	-7573
uchy	-7574
ucif	-7575
urre	-7576
yspe	-7577
▁177	-7578
▁183	-7579
▁Bel	-7580
▁Dav	-7581
▁Day	-7582
▁Inn	-7583
▁Mat	-7584
▁Nay	-7585
▁Pat	-7586
▁Ple	-7587
▁Spe	-7588
▁Thy	-7589
▁Two	-7590
▁Wor	-7591
▁Yar	-7592
▁bay	-7593
▁cet	-7594
▁cub	-7595
▁dum	-7596
▁dut	-7597
▁env	-7598
▁eth	-7599
▁fib	-7600
▁hal	-7601
▁hug	-7602
▁lbs	-7603
▁mak	-7604
▁nap	-7605
▁pag	-7606
▁pup	-7607
▁rom	-7608
▁som	-7609
▁viv	-7610
Folio	-7611
adoes	-7612
alous	-7613
anged	-7614
arian	-7615
armed	-7616
athed	-7617
bling	-7618
boats	-7619
bolts	-7620
bones	-7621
ciety	-7622
entat	-7623
erves	-7624
eware	-7625
going	-7626
grown	-7627
holes	-7628
icted	-7629
ifies	-7630
ights	-7631
ishop	-7632
istry	-7633
lands	-7634
namic	-7635
ogged	-7636
ossal	-7637
ossil	-7638
oused	-7639
prise	-7640
raged	-7641
rayed	-7642
rowed	-7643
suing	-7644
ucked	-7645
uvian	-7646
veted	-7647
▁Back	-7648
▁Both	-7649
▁Cook	-7650
▁Down	-7651
▁Hind	-7652
▁Holy	-7653
▁Hope	-7654
▁Java	-7655
▁Mary	-7656
▁Meth	-7657
▁Once	-7658
▁Over	-7659
▁Pass	-7660
▁Phys	-7661
▁Seas	-7662
▁Your	-7663
▁aims	-7664
▁bedf	-7665
▁bowl	-7666
▁busy	-7667
▁caut	-7668
▁dash	-7669
▁diam	-7670
▁dise	-7671
▁dogs	-7672
▁edge	-7673
▁eval	-7674
▁fled	-7675
▁gate	-7676
▁gest	-7677
▁hall	-7678
▁jugg	-7679
▁knot	-7680
▁lays	-7681
▁lest	-7682
▁limb	-7683
▁lion	-7684
▁mess	-7685
▁nest	-7686
▁oath	-7687
▁obso	-7688
▁odor	-7689
▁pack	-7690
▁pike	-7691
▁pile	-7692
▁pump	-7693
▁push	-7694
▁reli	-7695
▁rubb	-7696
▁rude	-7697
▁sall	-7698
▁seal	-7699
▁sine	-7700
▁snap	-7701
▁song	-7702
▁stam	-7703
▁stol	-7704
▁sult	-7705
▁sunk	-7706
▁tops	-7707
▁toss	-7708
▁trib	-7709
▁user	-7710
▁vind	-7711
▁wand	-7712
▁week	-7713
▁weep	-7714
▁woof	-7715
▁writ	-7716
Octavo	-7717
abouts	-7718
anning	-7719
chains	-7720
feeder	-7721
fortun	-7722
harmed	-7723
ifting	-7724
inding	-7725
itably	-7726
iverse	-7727
leuler	-7728
licted	-7729
luding	-7730
menced	-7731
minded	-7732
orship	-7733
oubted	-7734
pieces	-7735
plings	-7736
poling	-7737
rolled	-7738
udding	-7739
vading	-7740
verted	-7741
▁Andes	-7742
▁Beale	-7743
▁Jones	-7744
▁Macey	-7745
▁Night	-7746
▁Other	-7747
▁State	-7748
▁Tests	-7749
▁Their	-7750
▁absor	-7751
▁accum	-7752
▁agony	-7753
▁anvil	-7754
▁appet	-7755
▁bosom	-7756
▁brill	-7757
▁brute	-7758
▁bunch	-7759
▁cable	-7760
▁cease	-7761
▁chain	-7762
▁cheek	-7763
▁climb	-7764
▁coral	-7765
▁cords	-7766
▁cured	-7767
▁dolph	-7768
▁dried	-7769
▁dyspe	-7770
▁error	-7771
▁essay	-7772
▁fears	-7773
▁fluke	-7774
▁forem	-7775
▁fragr	-7776
▁funny	-7777
▁games	-7778
▁genit	-7779
▁gorge	-7780
▁group	-7781
▁guard	-7782
▁hangs	-7783
▁holds	-7784
▁impet	-7785
▁incom	-7786
▁issue	-7787
▁kneel	-7788
▁lucky	-7789
▁mathe	-7790
▁meals	-7791
▁older	-7792
▁omnip	-7793
▁ordin	-7794
▁overt	-7795
▁plant	-7796
▁prime	-7797
▁prior	-7798
▁punct	-7799
▁purse	-7800
▁repet	-7801
▁resid	-7802
▁rings	-7803
▁river	-7804
▁rules	-7805
▁sanct	-7806
▁seals	-7807
▁seams	-7808
▁shade	-7809
▁smack	-7810
▁solve	-7811
▁spont	-7812
▁staff	-7813
▁stave	-7814
▁surve	-7815
▁swore	-7816
▁tears	-7817
▁train	-7818
▁traum	-7819
▁warri	-7820
▁wears	-7821
▁widow	-7822
▁wings	-7823
▁wrest	-7824
▁wrote	-7825
animity	-7826
ercises	-7827
erences	-7828
idently	-7829
inciple	-7830
matical	-7831
ouching	-7832
quently	-7833
rolling	-7834
ugitive	-7835
ustomed	-7836
▁Hercul	-7837
▁Licens	-7838
▁Psycho	-7839
▁Rachel	-7840
▁Second	-7841
▁Sunday	-7842
▁Yarman	-7843
▁abroad	-7844
▁absurd	-7845
▁aggreg	-7846
▁artist	-7847
▁asleep	-7848
▁barbed	-7849
▁bloody	-7850
▁branch	-7851
▁candle	-7852
▁carpet	-7853
▁casual	-7854
▁charts	-7855
▁cheeks	-7856
▁coasts	-7857
▁column	-7858
▁condem	-7859
▁coolly	-7860
▁copied	-7861
▁copper	-7862
▁credit	-7863
▁crowds	-7864
▁cruise	-7865
▁daught	-7866
▁decide	-7867
▁dismal	-7868
▁donate	-7869
▁duties	-7870
▁enable	-7871
▁enters	-7872
▁expert	-7873
▁finite	-7874
▁flanks	-7875
▁garden	-7876
▁ghosts	-7877
▁growth	-7878
▁handed	-7879
▁hempen	-7880
▁hereby	-7881
▁hooded	-7882
▁impers	-7883
▁incarn	-7884
▁indign	-7885
▁inland	-7886
▁invite	-7887
▁latest	-7888
▁legend	-7889
▁logger	-7890
▁loudly	-7891
▁loving	-7892
▁musket	-7893
▁mutual	-7894
▁needed	-7895
▁ninety	-7896
▁oblong	-7897
▁organs	-7898
▁pillow	-7899
▁plates	-7900
▁poison	-7901
▁priest	-7902
▁pupils	-7903
▁recall	-7904
▁repent	-7905
▁replen	-7906
▁reward	-7907
▁safety	-7908
▁shaggy	-7909
▁shores	-7910
▁sister	-7911
▁sleeps	-7912
▁socket	-7913
▁solely	-7914
▁sprink	-7915
▁stayed	-7916
▁strata	-7917
▁stress	-7918
▁string	-7919
▁timber	-7920
▁toward	-7921
▁useful	-7922
▁voices	-7923
▁wilful	-7924
▁worlds	-7925
Landlord	-7926
athology	-7927
orpoises	-7928
stricken	-7929
▁Bleuler	-7930
▁Charity	-7931
▁Complex	-7932
▁Consequ	-7933
▁Further	-7934
▁Holland	-7935
▁Studien	-7936
▁Through	-7937
▁Typhoon	-7938
▁Vishnoo	-7939
▁actions	-7940
▁alluded	-7941
▁anchors	-7942
▁annihil	-7943
▁assumes	-7944
▁bidding	-7945
▁blindly	-7946
▁breaths	-7947
▁buoyant	-7948
▁chasing	-7949
▁chronic	-7950
▁coiling	-7951
▁collect	-7952
▁comprom	-7953
▁continu	-7954
▁corrupt	-7955
▁cracked	-7956
▁curling	-7957
▁dashing	-7958
▁declare	-7959
▁defined	-7960
▁discuss	-7961
▁dollars	-7962
▁drawers	-7963
▁dressed	-7964
▁drugged	-7965
▁dynamic	-7966
▁edition	-7967
▁effects	-7968
▁enlight	-7969
▁fancies	-7970
▁figures	-7971
▁furious	-7972
▁glances	-7973
▁hailing	-7974
▁heavily	-7975
▁illustr	-7976
▁imagine	-7977
▁improve	-7978
▁infancy	-7979
▁invited	-7980
▁jerking	-7981
▁laughed	-7982
▁lightly	-7983
▁notwith	-7984
▁outline	-7985
▁parties	-7986
▁percept	-7987
▁placing	-7988
▁playing	-7989
▁profits	-7990
▁prudent	-7991
▁ranging	-7992
▁retired	-7993
▁secrets	-7994
▁showing	-7995
▁shuttle	-7996
▁slipper	-7997
▁spasmod	-7998
▁squeeze	-7999
▁stretch	-8000
▁survive	-8001
▁tablets	-8002
▁talking	-8003
▁threads	-8004
▁verdure	-8005
▁weaving	-8006
▁western	-8007
▁wherein	-8008
▁woollen	-8009
▁wrought	-8010
criptions	-8011
fashioned	-8012
fessional	-8013
ibilities	-8014
▁Cetology	-8015
▁Monsieur	-8016
▁Narwhale	-8017
▁Southern	-8018
▁Tarshish	-8019
▁accepted	-8020
▁applying	-8021
▁breakers	-8022
▁catching	-8023
▁chapters	-8024
▁colossal	-8025
▁contempl	-8026
▁continue	-8027
▁currents	-8028
▁delicacy	-8029
▁detailed	-8030
▁dragging	-8031
▁dripping	-8032
▁drooping	-8033
▁eighteen	-8034
▁entrance	-8035
▁evaluate	-8036
▁extended	-8037
▁flinging	-8038
▁foremast	-8039
▁fountain	-8040
▁frequent	-8041
▁generous	-8042
▁headlong	-8043
▁homeward	-8044
▁humanity	-8045
▁humorous	-8046
▁knocking	-8047
▁lectures	-8048
▁licensed	-8049
▁likeness	-8050
▁magnetic	-8051
▁majestic	-8052
▁measured	-8053
▁military	-8054
▁millions	-8055
▁neighbor	-8056
▁northern	-8057
▁nostrils	-8058
▁obsolete	-8059
▁opposing	-8060
▁overwhel	-8061
▁polished	-8062
▁pressure	-8063
▁propriet	-8064
▁pursuing	-8065
▁quadrant	-8066
▁recalled	-8067
▁recently	-8068
▁reckless	-8069
▁recourse	-8070
▁reported	-8071
▁reproach	-8072
▁romantic	-8073
▁shavings	-8074
▁shooting	-8075
▁sidelong	-8076
▁slouched	-8077
▁soliloqu	-8078
▁spiracle	-8079
▁systemat	-8080
▁treatise	-8081
▁universe	-8082
▁unreason	-8083
▁whirling	-8084
▁withhold	-8085
▁Frenchman	-8086
▁Licensing	-8087
▁abounding	-8088
▁accidents	-8089
▁addressed	-8090
▁albatross	-8091
▁attracted	-8092
▁breathing	-8093
▁cathartic	-8094
▁commenced	-8095
▁component	-8096
▁conflicts	-8097
▁congenial	-8098
▁conscient	-8099
▁contained	-8100
▁doubloons	-8101
▁earnestly	-8102
▁eternally	-8103
▁extensive	-8104
▁extremely	-8105
▁harpooned	-8106
▁honorable	-8107
▁incorrect	-8108
▁innermost	-8109
▁lingering	-8110
▁mythology	-8111
▁objection	-8112
▁obtaining	-8113
▁occasions	-8114
▁pointwise	-8115
▁producing	-8116
▁returning	-8117
▁royalties	-8118
▁shivering	-8119
▁steersman	-8120
▁straining	-8121
▁thickness	-8122
▁tolerable	-8123
▁vigilance	-8124
▁withdrawn	-8125
iographical	-8126
▁Bulkington	-8127
▁Christians	-8128
▁Leviathans	-8129
▁adequately	-8130
▁artificial	-8131
▁bottomless	-8132
▁companions	-8133
▁complexion	-8134
▁constitute	-8135
▁contradict	-8136
▁derivative	-8137
▁diligently	-8138
▁diminished	-8139
▁discussion	-8140
▁everywhere	-8141
▁glistening	-8142
▁hereditary	-8143
▁indefinite	-8144
▁intentions	-8145
▁management	-8146
▁mechanical	-8147
▁outlandish	-8148
▁peculiarly	-8149
▁proceeding	-8150
▁pronounced	-8151
▁remembered	-8152
▁resembling	-8153
▁restricted	-8154
▁specialist	-8155
▁splintered	-8156
▁traditions	-8157
▁transition	-8158
▁translated	-8159
▁underlying	-8160
▁yourselves	-8161
▁assumptions	-8162
▁astonishing	-8163
▁conceptions	-8164
▁departments	-8165
▁distinguish	-8166
▁manifesting	-8167
▁preparation	-8168
▁probability	-8169
▁profoundest	-8170
▁publication	-8171
▁reconstruct	-8172
▁specialists	-8173
▁translation	-8174
▁affectionate	-8175
▁congregation	-8176
▁deliberately	-8177
▁indifference	-8178
▁inexplicable	-8179
▁interference	-8180
▁neurasthenia	-8181
▁pathological	-8182
▁representing	-8183
▁subterranean	-8184
▁vicissitudes	-8185
▁unconsciously	-8186
▁responsibility	-8187
▁differentiation	-8188
▁notwithstanding	-8189
!)	-8190
.1	-8191
01	-8192
20	-8193
5:	-8194
;”	-8195
AT	-8196
At	-8197
ED	-8198
GL	-8199
Ha	-8200
LI	-8201
Of	-8202
TH	-8203
Wh	-8204
ai	-8205
cz	-8206
ov	-8207
ux	-8208
’,	-8209
.1.	-8210
.3,	-8211
.3.	-8212
.9.	-8213
:9]	-8214
?”—	-8215
BIL	-8216
DEC	-8217
GRE	-8218
IES	-8219
IMI	-8220
IST	-8221
Man	-8222
Nay	-8223
See	-8224
TED	-8225
agn	-8226
ais	-8227
aur	-8228
bac	-8229
bag	-8230
bar	-8231
bod	-8232
cut	-8233
czi	-8234
div	-8235
edy	-8236
ena	-8237
fit	-8238
fre	-8239
hap	-8240
hee	-8241
ogy	-8242
onn	-8243
rau	-8244
rod	-8245
run	-8246
sev	-8247
sip	-8248
son	-8249
spe	-8250
thr	-8251
tti	-8252
veh	-8253
zar	-8254
▁5.	-8255
▁6.	-8256
▁7.	-8257
▁Ed	-8258
▁Fa	-8259
▁LA	-8260
▁Ot	-8261
▁Sn	-8262
▁TA	-8263
▁Us	-8264
▁az	-8265
▁eb	-8266
▁ep	-8267
▁et	-8268
▁gn	-8269
▁ug	-8270
▁“’	-8271
AMAG	-8272
Down	-8273
Moby	-8274
Supp	-8275
They	-8276
abol	-8277
aboo	-8278
ache	-8279
agin	-8280
aine	-8281
ands	-8282
arts	-8283
arus	-8284
awed	-8285
beat	-8286
blem	-8287
bler	-8288
bral	-8289
chet	-8290
crew	-8291
ecim	-8292
eled	-8293
eous	-8294
fall	-8295
fect	-8296
five	-8297
gger	-8298
grim	-8299
hank	-8300
hant	-8301
hard	-8302
hent	-8303
idge	-8304
idly	-8305
isms	-8306
izes	-8307
keep	-8308
lady	-8309
lorn	-8310
mate	-8311
maul	-8312
mout	-8313
ogul	-8314
open	-8315
ouch	-8316
ouis	-8317
owne	-8318
oyal	-8319
pots	-8320
reds	-8321
rete	-8322
rian	-8323
ripp	-8324
ript	-8325
sels	-8326
semb	-8327
sugg	-8328
they	-8329
ulum	-8330
verb	-8331
will	-8332
▁200	-8333
▁BRE	-8334
▁Bas	-8335
▁Ben	-8336
▁Bet	-8337
▁Bot	-8338
▁Ele	-8339
▁FOR	-8340
▁Jew	-8341
▁Lat	-8342
▁Laz	-8343
▁Leg	-8344
▁Low	-8345
▁Mal	-8346
▁Mon	-8347
▁NOT	-8348
▁Pur	-8349
▁Rom	-8350
▁Sex	-8351
▁Ter	-8352
▁Try	-8353
▁ale	-8354
▁ark	-8355
▁avo	-8356
▁bor	-8357
▁clo	-8358
▁dey	-8359
▁dod	-8360
▁dre	-8361
▁dur	-8362
▁ens	-8363
▁jib	-8364
▁jot	-8365
▁lun	-8366
▁mol	-8367
▁ram	-8368
▁rot	-8369
▁tas	-8370
▁vel	-8371
▁wax	-8372
Analy	-8373
Steel	-8374
akers	-8375
aming	-8376
analy	-8377
anity	-8378
arius	-8379
bacco	-8380
bowed	-8381
celer	-8382
cloth	-8383
denly	-8384
enced	-8385
enses	-8386
ester	-8387
horse	-8388
ierce	-8389
ifice	-8390
ipela	-8391
losed	-8392
navig	-8393
onial	-8394
ontin	-8395
opoly	-8396
orily	-8397
otent	-8398
outon	-8399
phant	-8400
piece	-8401
pikes	-8402
poone	-8403
repid	-8404
riage	-8405
rised	-8406
these	-8407
urity	-8408
urned	-8409
usion	-8410
▁1.5:	-8411
▁AGRE	-8412
▁Adam	-8413
▁Alab	-8414
▁Away	-8415
▁Chap	-8416
▁Didn	-8417
▁Fate	-8418
▁Fore	-8419
▁Germ	-8420
▁LIMI	-8421
▁Nine	-8422
▁Owen	-8423
▁Paul	-8424
▁Pict	-8425
▁Poor	-8426
▁Prov	-8427
▁Pull	-8428
▁Rome	-8429
▁Tart	-8430
▁Test	-8431
▁Were	-8432
▁aged	-8433
▁ahoy	-8434
▁axis	-8435
▁bapt	-8436
▁barn	-8437
▁boil	-8438
▁bolt	-8439
▁bony	-8440
▁bred	-8441
▁brig	-8442
▁burg	-8443
▁bury	-8444
▁bust	-8445
▁cash	-8446
▁ceas	-8447
▁chip	-8448
▁chis	-8449
▁chur	-8450
▁clay	-8451
▁clen	-8452
▁clut	-8453
▁cure	-8454
▁deaf	-8455
▁dict	-8456
▁dies	-8457
▁disd	-8458
▁duly	-8459
▁evol	-8460
▁eyed	-8461
▁fant	-8462
▁fits	-8463
▁flex	-8464
▁flip	-8465
▁foes	-8466
▁genu	-8467
▁gift	-8468
▁glob	-8469
▁gush	-8470
▁hath	-8471
▁inad	-8472
▁libr	-8473
▁lieu	-8474
▁lurk	-8475
▁mend	-8476
▁mile	-8477
▁nice	-8478
▁odds	-8479
▁onto	-8480
▁palp	-8481
▁pear	-8482
▁peop	-8483
▁pere	-8484
▁plac	-8485
▁pond	-8486
▁rays	-8487
▁redu	-8488
▁ripe	-8489
▁scal	-8490
▁sedu	-8491
▁semi	-8492
▁shat	-8493
▁shun	-8494
▁slee	-8495
▁sons	-8496
▁spin	-8497
▁subs	-8498
▁suck	-8499
▁symm	-8500
▁tame	-8501
▁tant	-8502
▁tent	-8503
▁thri	-8504
▁tone	-8505
▁tool	-8506
▁trip	-8507
▁turb	-8508
▁twig	-8509
▁twil	-8510
▁twin	-8511
▁type	-8512
▁unav	-8513
▁unce	-8514
▁vine	-8515
▁vult	-8516
▁wasn	-8517
▁yawn	-8518
BILITY	-8519
Coroll	-8520
acetti	-8521
angway	-8522
arying	-8523
backed	-8524
bearer	-8525
hunter	-8526
ierstr	-8527
ieties	-8528
incing	-8529
ipment	-8530
isions	-8531
istern	-8532
lining	-8533
masted	-8534
mental	-8535
odecim	-8536
ogenic	-8537
olding	-8538
ologne	-8539
onents	-8540
shaped	-8541
spread	-8542
uously	-8543
urgeon	-8544
usants	-8545
utored	-8546
▁About	-8547
▁Afric	-8548
▁Aloft	-8549
▁Cabin	-8550
▁Chase	-8551
▁Chief	-8552
▁Const	-8553
▁DAMAG	-8554
▁Fates	-8555
▁Feren	-8556
▁Going	-8557
▁India	-8558
▁Inter	-8559
▁James	-8560
▁Louis	-8561
▁Mogul	-8562
▁Sunda	-8563
▁Three	-8564
▁Watch	-8565
▁Which	-8566
▁abhor	-8567
▁admir	-8568
▁admon	-8569
▁alter	-8570
▁angel	-8571
▁azure	-8572
▁begun	-8573
▁bloom	-8574
▁blown	-8575
▁boast	-8576
▁brand	-8577
▁bride	-8578
▁burnt	-8579
▁chart	-8580
▁conqu	-8581
▁coron	-8582
▁crawl	-8583
▁cripp	-8584
▁disgu	-8585
▁doctr	-8586
▁doors	-8587
▁drops	-8588
▁drugg	-8589
▁ended	-8590
▁faced	-8591
▁fever	-8592
▁fifth	-8593
▁fling	-8594
▁folds	-8595
▁frame	-8596
▁gains	-8597
▁ghast	-8598
▁girth	-8599
▁hilar	-8600
▁honey	-8601
▁hopes	-8602
▁hypot	-8603
▁ideal	-8604
▁inequ	-8605
▁inval	-8606
▁leaky	-8607
▁legal	-8608
▁merid	-8609
▁moder	-8610
▁month	-8611
▁nails	-8612
▁nerve	-8613
▁nomin	-8614
▁outra	-8615
▁outst	-8616
▁plate	-8617
▁print	-8618
▁rough	-8619
▁route	-8620
▁saved	-8621
▁scept	-8622
▁seeks	-8623
▁sheet	-8624
▁shoes	-8625
▁simil	-8626
▁sized	-8627
▁sleet	-8628
▁smile	-8629
▁solic	-8630
▁steps	-8631
▁stole	-8632
▁store	-8633
▁swart	-8634
▁tides	-8635
▁track	-8636
▁tread	-8637
▁twain	-8638
▁twine	-8639
▁unapp	-8640
▁uncon	-8641
▁unfre	-8642
▁unite	-8643
▁unrec	-8644
▁veins	-8645
▁whirl	-8646
▁whist	-8647
▁wield	-8648
▁wrath	-8649
▁wrist	-8650
angling	-8651
atively	-8652
ensions	-8653
entimes	-8654
hanging	-8655
however	-8656
ignific	-8657
imately	-8658
istical	-8659
medical	-8660
mouthed	-8661
othesis	-8662
pective	-8663
ruption	-8664
seventh	-8665
▁Berlin	-8666
▁Browne	-8667
▁Cabaco	-8668
▁Church	-8669
▁Dreams	-8670
▁Halloa	-8671
▁Hindoo	-8672
▁Hyster	-8673
▁Missis	-8674
▁Supper	-8675
▁Tahiti	-8676
▁Tranqu	-8677
▁aborig	-8678
▁adrift	-8679
▁appell	-8680
▁arisen	-8681
▁arises	-8682
▁assail	-8683
▁attain	-8684
▁awhile	-8685
▁babies	-8686
▁beside	-8687
▁bestir	-8688
▁blades	-8689
▁blocks	-8690
▁bolted	-8691
▁bowing	-8692
▁braces	-8693
▁brawny	-8694
▁breaks	-8695
▁bubble	-8696
▁burned	-8697
▁candid	-8698
▁canoes	-8699
▁career	-8700
▁cattle	-8701
▁chapel	-8702
▁chocks	-8703
▁chorus	-8704
▁coffee	-8705
▁collab	-8706
▁cooked	-8707
▁couple	-8708
▁curled	-8709
▁damned	-8710
▁darker	-8711
▁decent	-8712
▁defend	-8713
▁deform	-8714
▁devote	-8715
▁devout	-8716
▁diabol	-8717
▁disapp	-8718
▁dismay	-8719
▁divers	-8720
▁dreary	-8721
▁econom	-8722
▁entity	-8723
▁errors	-8724
▁excess	-8725
▁expans	-8726
▁fasten	-8727
▁fibres	-8728
▁finest	-8729
▁flound	-8730
▁forged	-8731
▁forked	-8732
▁fought	-8733
▁fulfil	-8734
▁guilty	-8735
▁haught	-8736
▁heeded	-8737
▁howled	-8738
▁hurled	-8739
▁images	-8740
▁imagin	-8741
▁interf	-8742
▁intric	-8743
▁knives	-8744
▁layers	-8745
▁laying	-8746
▁linked	-8747
▁madden	-8748
▁magnet	-8749
▁margin	-8750
▁motive	-8751
▁multip	-8752
▁nation	-8753
▁oldest	-8754
▁oppose	-8755
▁orphan	-8756
▁pallid	-8757
▁pallor	-8758
▁parlor	-8759
▁phases	-8760
▁plague	-8761
▁precip	-8762
▁prefer	-8763
▁primal	-8764
▁promin	-8765
▁psycho	-8766
▁purple	-8767
▁raises	-8768
▁rascal	-8769
▁recoll	-8770
▁reeled	-8771
▁refuge	-8772
▁refuse	-8773
▁region	-8774
▁reveal	-8775
▁ribbed	-8776
▁riddle	-8777
▁rigged	-8778
▁robust	-8779
▁safely	-8780
▁salted	-8781
▁scales	-8782
▁schoon	-8783
▁serves	-8784
▁shades	-8785
▁shoals	-8786
▁shreds	-8787
▁skulls	-8788
▁sorrow	-8789
▁spades	-8790
▁spears	-8791
▁spiral	-8792
▁spires	-8793
▁splend	-8794
▁starts	-8795
▁sublim	-8796
▁summon	-8797
▁sunken	-8798
▁tapers	-8799
▁throat	-8800
▁throws	-8801
▁uncond	-8802
▁unrest	-8803
▁unwarr	-8804
▁upward	-8805
▁vacant	-8806
▁vainly	-8807
▁victim	-8808
▁viewed	-8809
▁virgin	-8810
▁vision	-8811
▁walked	-8812
▁waving	-8813
▁wealth	-8814
▁weaver	-8815
▁widest	-8816
▁wisdom	-8817
▁wrists	-8818
▁yelled	-8819
attering	-8820
coloured	-8821
eviating	-8822
issistic	-8823
ominated	-8824
ordinate	-8825
reaching	-8826
ricacies	-8827
ructions	-8828
▁Alabama	-8829
▁Cologne	-8830
▁Finally	-8831
▁Iceland	-8832
▁Islands	-8833
▁LIMITED	-8834
▁Lazarus	-8835
▁Natural	-8836
▁Nineveh	-8837
▁Patagon	-8838
▁Persian	-8839
▁Science	-8840
▁Society	-8841
▁Spouter	-8842
▁Sumatra	-8843
▁Thunder	-8844
▁Turkish	-8845
▁Voyages	-8846
▁acceler	-8847
▁address	-8848
▁adopted	-8849
▁ailment	-8850
▁alarmed	-8851
▁altered	-8852
▁amazing	-8853
▁analyse	-8854
▁animals	-8855
▁anxiety	-8856
▁avoided	-8857
▁bethink	-8858
▁blazing	-8859
▁blowing	-8860
▁boarded	-8861
▁buffalo	-8862
▁carcase	-8863
▁carving	-8864
▁casting	-8865
▁ceiling	-8866
▁chowder	-8867
▁cleared	-8868
▁confirm	-8869
▁consult	-8870
▁convert	-8871
▁corpore	-8872
▁cowards	-8873
▁dealing	-8874
▁deepest	-8875
▁defence	-8876
▁degrees	-8877
▁disease	-8878
▁display	-8879
▁earthqu	-8880
▁enraged	-8881
▁entreat	-8882
▁forbear	-8883
▁frigate	-8884
▁fullest	-8885
▁glanced	-8886
▁granted	-8887
▁hammers	-8888
▁heedful	-8889
▁hostile	-8890
▁hovered	-8891
▁iceberg	-8892
▁illness	-8893
▁impregn	-8894
▁indulge	-8895
▁knocked	-8896
▁knowest	-8897
▁lasting	-8898
▁majesty	-8899
▁masonry	-8900
▁miracle	-8901
▁mothers	-8902
▁nowhere	-8903
▁obeying	-8904
▁partial	-8905
▁perempt	-8906
▁potency	-8907
▁prayers	-8908
▁prepare	-8909
▁prevail	-8910
▁printed	-8911
▁profane	-8912
▁profund	-8913
▁promont	-8914
▁proverb	-8915
▁refused	-8916
▁reigned	-8917
▁remarks	-8918
▁request	-8919
▁resumed	-8920
▁resurre	-8921
▁screwed	-8922
▁serpent	-8923
▁shrieks	-8924
▁silvery	-8925
▁sixteen	-8926
▁slender	-8927
▁slumber	-8928
▁smiting	-8929
▁smitten	-8930
▁spoiled	-8931
▁staring	-8932
▁station	-8933
▁sucking	-8934
▁swaying	-8935
▁swelled	-8936
▁sympath	-8937
▁tempted	-8938
▁tension	-8939
▁tobacco	-8940
▁tragedy	-8941
▁trumpet	-8942
▁uninter	-8943
▁variety	-8944
▁village	-8945
▁vindict	-8946
▁waiting	-8947
▁warrant	-8948
▁wedding	-8949
▁whoever	-8950
▁willing	-8951
▁winding	-8952
▁windows	-8953
Corollary	-8954
Steelkilt	-8955
ierstrass	-8956
ipelagoes	-8957
lications	-8958
ufactured	-8959
▁European	-8960
▁Ferenczi	-8961
▁Hercules	-8962
▁Methinks	-8963
▁Midnight	-8964
▁Oriental	-8965
▁Pictures	-8966
▁Remember	-8967
▁Standing	-8968
▁Virginia	-8969
▁absolute	-8970
▁afforded	-8971
▁analysed	-8972
▁animated	-8973
▁ascribed	-8974
▁awaiting	-8975
▁awakened	-8976
▁becoming	-8977
▁beheaded	-8978
▁betrayed	-8979
▁breathes	-8980
▁churches	-8981
▁churning	-8982
▁clinical	-8983
▁commonly	-8984
▁corrobor	-8985
▁covering	-8986
▁crawling	-8987
▁delirium	-8988
▁deserted	-8989
▁disorder	-8990
▁disposed	-8991
▁effected	-8992
▁embalmed	-8993
▁entering	-8994
▁examined	-8995
▁fighting	-8996
▁finished	-8997
▁flitting	-8998
▁fragrant	-8999
▁fugitive	-9000
▁heavenly	-9001
▁impelled	-9002
▁incomple	-9003
▁indolent	-9004
▁insanity	-9005
▁intrepid	-9006
▁inverted	-9007
▁jeopardy	-9008
▁landlady	-9009
▁learning	-9010
▁lifeless	-9011
▁lounging	-9012
▁marching	-9013
▁monopoly	-9014
▁mouthful	-9015
▁murdered	-9016
▁opinions	-9017
▁oriental	-9018
▁ostentat	-9019
▁overhead	-9020
▁parallel	-9021
▁payments	-9022
▁peaceful	-9023
▁perished	-9024
▁plunging	-9025
▁premises	-9026
▁prevails	-9027
▁proposed	-9028
▁reminded	-9029
▁reveries	-9030
▁scorched	-9031
▁serenity	-9032
▁shipping	-9033
▁shivered	-9034
▁sleepers	-9035
▁slippery	-9036
▁spending	-9037
▁startled	-9038
▁stepping	-9039
▁sticking	-9040
▁studying	-9041
▁sunlight	-9042
▁unimagin	-9043
▁uprising	-9044
▁violence	-9045
▁wrenched	-9046
ternatural	-9047
▁Americans	-9048
▁Canallers	-9049
▁Christmas	-9050
▁Conscious	-9051
▁Instantly	-9052
▁Mississip	-9053
▁Mountains	-9054
▁Presently	-9055
▁Principle	-9056
▁amazement	-9057
▁announced	-9058
▁antiquity	-9059
▁apartment	-9060
▁appointed	-9061
▁ascending	-9062
▁attempted	-9063
▁attending	-9064
▁audacious	-9065
▁boundless	-9066
▁chemistry	-9067
▁collected	-9068
▁competent	-9069
▁complying	-9070
▁conceived	-9071
▁curiously	-9072
▁defective	-9073
▁descended	-9074
▁dexterous	-9075
▁discharge	-9076
▁displayed	-9077
▁downright	-9078
▁dumplings	-9079
▁entangled	-9080
▁equipment	-9081
▁exception	-9082
▁exhausted	-9083
▁extending	-9084
▁extension	-9085
▁fisherman	-9086
▁followers	-9087
▁furiously	-9088
▁happening	-9089
▁impressed	-9090
▁laborious	-9091
▁longitude	-9092
▁mightiest	-9093
▁opponents	-9094
▁passenger	-9095
▁penetrate	-9096
▁porpoises	-9097
▁preceding	-9098
▁prevailed	-9099
▁psychoses	-9100
▁readiness	-9101
▁recognize	-9102
▁referring	-9103
▁sacrifice	-9104
▁screaming	-9105
▁separated	-9106
▁seriously	-9107
▁shattered	-9108
▁slackened	-9109
▁soundings	-9110
▁spoutings	-9111
▁suspicion	-9112
▁swiftness	-9113
▁tattooing	-9114
▁undoubted	-9115
▁vibrating	-9116
ternational	-9117
▁Absolutely	-9118
▁accustomed	-9119
▁atmosphere	-9120
▁charitable	-9121
▁consisting	-9122
▁constantly	-9123
▁contribute	-9124
▁corpusants	-9125
▁difficulty	-9126
▁engravings	-9127
▁enterprise	-9128
▁explaining	-9129
▁frightened	-9130
▁handspikes	-9131
▁heathenish	-9132
▁heightened	-9133
▁helplessly	-9134
▁hereabouts	-9135
▁hypothesis	-9136
▁immemorial	-9137
▁impersonal	-9138
▁inequality	-9139
▁insignific	-9140
▁laboratory	-9141
▁limitation	-9142
▁loggerhead	-9143
▁numberless	-9144
▁paragraphs	-9145
▁periodical	-9146
▁pertaining	-9147
▁plaintiffs	-9148
▁production	-9149
▁protection	-9150
▁recklessly	-9151
▁reputation	-9152
▁speechless	-9153
▁statements	-9154
▁stretching	-9155
▁successive	-9156
▁temptation	-9157
▁thoroughly	-9158
▁transforms	-9159
▁triumphant	-9160
▁uncommonly	-9161
▁unexpected	-9162
▁accompanied	-9163
▁circumnavig	-9164
▁constitutes	-9165
▁counterpane	-9166
▁derivatives	-9167
▁differences	-9168
▁distinction	-9169
▁disturbance	-9170
▁exasperated	-9171
▁exclamation	-9172
▁exclusively	-9173
▁foundations	-9174
▁intricacies	-9175
▁investigate	-9176
▁proceedings	-9177
▁replacement	-9178
▁resemblance	-9179
▁responsible	-9180
▁steadfastly	-9181
▁superiority	-9182
▁treacherous	-9183
▁accompanying	-9184
▁acquaintance	-9185
▁apprehension	-9186
▁consequently	-9187
▁encountering	-9188
▁irresistible	-9189
▁performances	-9190
▁resurrection	-9191
▁subsequently	-9192
psychoanalysis	-9193
▁circumference	-9194
▁comprehensive	-9195
▁conscientious	-9196
▁contributions	-9197
▁opportunities	-9198
▁possibilities	-9199
▁psychologists	-9200
▁unquestionable	-9201
▁differentiating	-9202
):	-9203
1,	-9204
1:	-9205
26	-9206
2:	-9207
3:	-9208
4:	-9209
6:	-9210
7:	-9211
8:	-9212
Ah	-9213
De	-9214
EL	-9215
IP	-9216
OB	-9217
SS	-9218
Se	-9219
To	-9220
Tr	-9221
UD	-9222
Ye	-9223
[1	-9224
fa	-9225
yr	-9226
▁)	-9227
,”—	-9228
...	-9229
ALY	-9230
ING	-9231
Inn	-9232
Let	-9233
SES	-9234
ado	-9235
amm	-9236
bra	-9237
car	-9238
cel	-9239
cke	-9240
cla	-9241
cra	-9242
dor	-9243
eep	-9244
eer	-9245
fed	-9246
fic	-9247
god	-9248
ids	-9249
ieu	-9250
igr	-9251
itz	-9252
jac	-9253
kel	-9254
lac	-9255
laz	-9256
nel	-9257
oar	-9258
obs	-9259
ope	-9260
oso	-9261
por	-9262
pul	-9263
put	-9264
rad	-9265
raz	-9266
rec	-9267
rie	-9268
rov	-9269
squ	-9270
ury	-9271
vor	-9272
yet	-9273
▁46	-9274
▁90	-9275
▁Ev	-9276
▁FU	-9277
▁Ma	-9278
▁PU	-9279
▁Pa	-9280
▁Te	-9281
▁Tw	-9282
▁VI	-9283
▁ic	-9284
▁ju	-9285
:13]	-9286
:18]	-9287
BLEM	-9288
Didn	-9289
From	-9290
Hint	-9291
RACT	-9292
Will	-9293
With	-9294
agle	-9295
agre	-9296
aper	-9297
aron	-9298
arto	-9299
athe	-9300
bade	-9301
bowl	-9302
brew	-9303
buch	-9304
bury	-9305
cest	-9306
cope	-9307
dest	-9308
eady	-9309
edar	-9310
eded	-9311
edro	-9312
eked	-9313
fins	-9314
frau	-9315
from	-9316
gone	-9317
hall	-9318
hark	-9319
hazz	-9320
hire	-9321
hook	-9322
horn	-9323
inea	-9324
inen	-9325
kens	-9326
kins	-9327
lobe	-9328
loma	-9329
lson	-9330
mits	-9331
mous	-9332
mpus	-9333
ndom	-9334
nels	-9335
only	-9336
onor	-9337
osea	-9338
otes	-9339
otha	-9340
paul	-9341
phur	-9342
pitz	-9343
ples	-9344
poor	-9345
pths	-9346
pull	-9347
resh	-9348
rigg	-9349
shoe	-9350
shot	-9351
tell	-9352
tled	-9353
tles	-9354
turb	-9355
uary	-9356
ucle	-9357
unts	-9358
usks	-9359
usky	-9360
vior	-9361
were	-9362
wers	-9363
word	-9364
wter	-9365
zily	-9366
▁13.	-9367
▁180	-9368
▁275	-9369
▁Aff	-9370
▁Asi	-9371
▁Aug	-9372
▁Aut	-9373
▁Bal	-9374
▁CON	-9375
▁Cra	-9376
▁Cru	-9377
▁Dra	-9378
▁Ego	-9379
▁Far	-9380
▁Gam	-9381
▁Hum	-9382
▁INC	-9383
▁Job	-9384
▁Jud	-9385
▁LAY	-9386
▁Lab	-9387
▁Mar	-9388
▁Mor	-9389
▁Oft	-9390
▁Rel	-9391
▁Rep	-9392
▁Ret	-9393
▁Say	-9394
▁Sen	-9395
▁Sim	-9396
▁abn	-9397
▁ath	-9398
▁axe	-9399
▁caw	-9400
▁cit	-9401
▁dub	-9402
▁enl	-9403
▁fel	-9404
▁fol	-9405
▁gap	-9406
▁haw	-9407
▁map	-9408
▁mob	-9409
▁nod	-9410
▁paw	-9411
▁pet	-9412
▁pig	-9413
▁por	-9414
▁pry	-9415
▁rap	-9416
▁raz	-9417
▁sap	-9418
▁sig	-9419
▁tea	-9420
▁til	-9421
▁tru	-9422
▁tuf	-9423
▁typ	-9424
▁umb	-9425
▁wol	-9426
ANALY	-9427
ANTUC	-9428
First	-9429
Hands	-9430
Lower	-9431
Right	-9432
Stern	-9433
Whale	-9434
adays	-9435
adise	-9436
agged	-9437
aging	-9438
alian	-9439
allen	-9440
amlet	-9441
anque	-9442
apest	-9443
arant	-9444
ardon	-9445
arris	-9446
artic	-9447
asant	-9448
asphe	-9449
athom	-9450
bably	-9451
break	-9452
cases	-9453
coast	-9454
cried	-9455
dated	-9456
dorff	-9457
drawn	-9458
egone	-9459
ellig	-9460
etime	-9461
forth	-9462
glass	-9463
heard	-9464
heres	-9465
icirc	-9466
icorn	-9467
idean	-9468
iless	-9469
illes	-9470
inces	-9471
ineer	-9472
inese	-9473
inisc	-9474
isive	-9475
laces	-9476
locks	-9477
lydon	-9478
maker	-9479
nesia	-9480
odiac	-9481
oking	-9482
olden	-9483
ommun	-9484
onies	-9485
onstr	-9486
onted	-9487
opath	-9488
orers	-9489
ouded	-9490
ourth	-9491
plain	-9492
raham	-9493
ropes	-9494
ropri	-9495
stead	-9496
steak	-9497
thest	-9498
trees	-9499
uding	-9500
ungen	-9501
urday	-9502
usive	-9503
watch	-9504
yards	-9505
▁1.1:	-9506
▁1.2:	-9507
▁1.3:	-9508
▁1.4:	-9509
▁1.6:	-9510
▁1.7:	-9511
▁1.8:	-9512
▁5.2.	-9513
▁7.2.	-9514
▁Asia	-9515
▁Bear	-9516
▁Bels	-9517
▁Boat	-9518
▁Book	-9519
▁Care	-9520
▁Czar	-9521
▁Dece	-9522
▁Deck	-9523
▁Dost	-9524
▁Fish	-9525
▁Gall	-9526
▁Less	-9527
▁Linn	-9528
▁Much	-9529
▁Post	-9530
▁Prof	-9531
▁Rose	-9532
▁Russ	-9533
▁Stop	-9534
▁Talk	-9535
▁afar	-9536
▁anew	-9537
▁army	-9538
▁arom	-9539
▁bade	-9540
▁bald	-9541
▁bend	-9542
▁bitt	-9543
▁bord	-9544
▁brew	-9545
▁bund	-9546
▁butt	-9547
▁cane	-9548
▁cave	-9549
▁chin	-9550
▁cobb	-9551
▁cock	-9552
▁coil	-9553
▁cosy	-9554
▁cram	-9555
▁dazz	-9556
▁decl	-9557
▁dent	-9558
▁depl	-9559
▁doze	-9560
▁drab	-9561
▁duck	-9562
▁enth	-9563
▁goin	-9564
▁groo	-9565
▁gulf	-9566
▁gurg	-9567
▁hoof	-9568
▁intu	-9569
▁irre	-9570
▁lawy	-9571
▁leis	-9572
▁load	-9573
▁mach	-9574
▁mask	-9575
▁mirr	-9576
▁misg	-9577
▁mode	-9578
▁moss	-9579
▁mour	-9580
▁mute	-9581
▁naut	-9582
▁navy	-9583
▁nour	-9584
▁omen	-9585
▁owns	-9586
▁palm	-9587
▁parm	-9588
▁penn	-9589
▁pool	-9590
▁pour	-9591
▁pref	-9592
▁rehe	-9593
▁rend	-9594
▁risk	-9595
▁roar	-9596
▁ruin	-9597
▁sche	-9598
▁scud	-9599
▁sear	-9600
▁sequ	-9601
▁sets	-9602
▁shab	-9603
▁shed	-9604
▁shir	-9605
▁sits	-9606
▁soap	-9607
▁sore	-9608
▁surg	-9609
▁swar	-9610
▁toes	-9611
▁trag	-9612
▁trap	-9613
▁tube	-9614
▁ugly	-9615
▁uner	-9616
▁unhe	-9617
▁unob	-9618
▁unst	-9619
▁vile	-9620
▁ward	-9621
▁wash	-9622
▁whel	-9623
▁zone	-9624
Though	-9625
airing	-9626
ancial	-9627
anders	-9628
arctic	-9629
asters	-9630
ateful	-9631
ateral	-9632
atiate	-9633
battle	-9634
bergen	-9635
ensity	-9636
ervoir	-9637
estial	-9638
esting	-9639
estive	-9640
gments	-9641
hazzar	-9642
hement	-9643
hentic	-9644
hering	-9645
ieving	-9646
iguous	-9647
ioneer	-9648
isable	-9649
isings	-9650
itates	-9651
itical	-9652
ivable	-9653
izings	-9654
lusive	-9655
mother	-9656
ndency	-9657
orable	-9658
ounted	-9659
render	-9660
ringly	-9661
seeing	-9662
stinct	-9663
urring	-9664
▁Adler	-9665
▁Archy	-9666
▁Aside	-9667
▁Banks	-9668
▁Being	-9669
▁Child	-9670
▁Devil	-9671
▁Euroc	-9672
▁Folio	-9673
▁Forty	-9674
▁Globe	-9675
▁Hosea	-9676
▁Langs	-9677
▁Latin	-9678
▁Pedro	-9679
▁Quick	-9680
▁Spitz	-9681
▁Truth	-9682
▁Venet	-9683
▁abide	-9684
▁amber	-9685
▁array	-9686
▁arrow	-9687
▁banqu	-9688
▁beard	-9689
▁blame	-9690
▁bland	-9691
▁brace	-9692
▁breed	-9693
▁butts	-9694
▁capit	-9695
▁cedar	-9696
▁chaps	-9697
▁chips	-9698
▁coals	-9699
▁coinc	-9700
▁coins	-9701
▁costs	-9702
▁crime	-9703
▁dance	-9704
▁dared	-9705
▁decap	-9706
▁decre	-9707
▁dents	-9708
▁docks	-9709
▁dusky	-9710
▁emerg	-9711
▁enlar	-9712
▁explo	-9713
▁fable	-9714
▁faded	-9715
▁fidel	-9716
▁flies	-9717
▁flows	-9718
▁gaunt	-9719
▁goble	-9720
▁grant	-9721
▁hairs	-9722
▁heaps	-9723
▁holid	-9724
▁hooks	-9725
▁hulls	-9726
▁incap	-9727
▁initi	-9728
▁items	-9729
▁loses	-9730
▁march	-9731
▁maxim	-9732
▁merit	-9733
▁moods	-9734
▁moves	-9735
▁myths	-9736
▁ninet	-9737
▁nucle	-9738
▁oaken	-9739
▁oakum	-9740
▁ornam	-9741
▁owned	-9742
▁plump	-9743
▁ports	-9744
▁postp	-9745
▁pound	-9746
▁prick	-9747
▁puffs	-9748
▁ridic	-9749
▁rival	-9750
▁robes	-9751
▁roots	-9752
▁saith	-9753
▁scrat	-9754
▁sexes	-9755
▁shelf	-9756
▁shoot	-9757
▁smote	-9758
▁spoil	-9759
▁stagg	-9760
▁stamp	-9761
▁stick	-9762
▁sunny	-9763
▁sweat	-9764
▁tails	-9765
▁tales	-9766
▁terra	-9767
▁thump	-9768
▁tones	-9769
▁tough	-9770
▁towns	-9771
▁trick	-9772
▁undes	-9773
▁unint	-9774
▁unsus	-9775
▁vigor	-9776
▁walks	-9777
▁waved	-9778
▁wight	-9779
▁wives	-9780
▁wrigg	-9781
▁yarns	-9782
alogous	-9783
arently	-9784
attling	-9785
bearing	-9786
captain	-9787
ceptive	-9788
ckoning	-9789
flowing	-9790
ineness	-9791
ingling	-9792
itative	-9793
iteness	-9794
iterion	-9795
ituting	-9796
lecting	-9797
ocation	-9798
odecimo	-9799
ortions	-9800
penters	-9801
pointed	-9802
pooneer	-9803
queness	-9804
rescent	-9805
riculum	-9806
uddenly	-9807
vereign	-9808
whaling	-9809
▁Arctic	-9810
▁August	-9811
▁Beware	-9812
▁Bishop	-9813
▁Chapel	-9814
▁Depths	-9815
▁Except	-9816
▁Fourth	-9817
▁Golden	-9818
▁Harris	-9819
▁Hebrew	-9820
▁NANTUC	-9821
▁Prepar	-9822
▁School	-9823
▁Specks	-9824
▁Spring	-9825
▁Surely	-9826
▁agents	-9827
▁allies	-9828
▁anomal	-9829
▁archit	-9830
▁aright	-9831
▁awaken	-9832
▁backed	-9833
▁basket	-9834
▁beasts	-9835
▁befell	-9836
▁billow	-9837
▁button	-9838
▁calves	-9839
▁cannon	-9840
▁capric	-9841
▁cavity	-9842
▁ceased	-9843
▁census	-9844
▁clergy	-9845
▁climes	-9846
▁clutch	-9847
▁cooper	-9848
▁cracks	-9849
▁creamy	-9850
▁define	-9851
▁differ	-9852
▁divide	-9853
▁diving	-9854
▁dotted	-9855
▁dragon	-9856
▁elabor	-9857
▁errand	-9858
▁esteem	-9859
▁excuse	-9860
▁exempt	-9861
▁faster	-9862
▁fiends	-9863
▁flavor	-9864
▁flower	-9865
▁fortun	-9866
▁gloomy	-9867
▁groves	-9868
▁guided	-9869
▁habits	-9870
▁heroes	-9871
▁hooked	-9872
▁insert	-9873
▁insure	-9874
▁intend	-9875
▁invent	-9876
▁joints	-9877
▁lazily	-9878
▁leader	-9879
▁loomed	-9880
▁losing	-9881
▁maketh	-9882
▁malign	-9883
▁market	-9884
▁meadow	-9885
▁midway	-9886
▁mincer	-9887
▁morbid	-9888
▁mouldy	-9889
▁namely	-9890
▁navies	-9891
▁neared	-9892
▁notion	-9893
▁packed	-9894
▁pencil	-9895
▁pewter	-9896
▁pickle	-9897
▁pirate	-9898
▁plight	-9899
▁portra	-9900
▁poured	-9901
▁prison	-9902
▁prompt	-9903
▁purcha	-9904
▁queens	-9905
▁raging	-9906
▁random	-9907
▁rebell	-9908
▁rescue	-9909
▁revive	-9910
▁rights	-9911
▁rocked	-9912
▁rooted	-9913
▁shakes	-9914
▁shower	-9915
▁signed	-9916
▁smoked	-9917
▁spaces	-9918
▁speedy	-9919
▁sprung	-9920
▁stimul	-9921
▁submit	-9922
▁suffer	-9923
▁survey	-9924
▁swayed	-9925
▁timely	-9926
▁toiled	-9927
▁tokens	-9928
▁trance	-9929
▁transf	-9930
▁vapory	-9931
▁wasted	-9932
▁wedded	-9933
▁wheels	-9934
▁wished	-9935
ANALYSES	-9936
Analyses	-9937
critters	-9938
eastward	-9939
izations	-9940
kerchief	-9941
pointing	-9942
rederick	-9943
thoughts	-9944
▁Abraham	-9945
▁Already	-9946
▁Asiatic	-9947
▁Certain	-9948
▁Chinese	-9949
▁Germans	-9950
▁Italian	-9951
▁Manilla	-9952
▁PROBLEM	-9953
▁Straits	-9954
▁Tranque	-9955
▁Tranquo	-9956
▁Washing	-9957
▁Whereas	-9958
▁Without	-9959
▁ability	-9960
▁absence	-9961
▁amorous	-9962
▁antique	-9963
▁arrival	-9964
▁article	-9965
▁ascribe	-9966
▁augment	-9967
▁average	-9968
▁blasphe	-9969
▁blended	-9970
▁breathe	-9971
▁cocaine	-9972
▁coffins	-9973
▁colours	-9974
▁comical	-9975
▁compens	-9976
▁conting	-9977
▁counted	-9978
▁degener	-9979
▁devices	-9980
▁diploma	-9981
▁doctors	-9982
▁doubted	-9983
▁dyspeps	-9984
▁elapsed	-9985
▁emerged	-9986
▁encoura	-9987
▁enemies	-9988
▁equival	-9989
▁erected	-9990
▁examine	-9991
▁exclude	-9992
▁exposed	-9993
▁filling	-9994
▁flaming	-9995
▁flashes	-9996
▁forbade	-9997
▁forebod	-9998
▁forests	-9999
▁forlorn	-10000
▁fortune	-10001
▁gallons	-10002
▁gallows	-10003
▁ghastly	-10004
▁gleamed	-10005
▁guarant	-10006
▁handled	-10007
▁harbors	-10008
▁harmony	-10009
▁hatchet	-10010
▁haughty	-10011
▁helping	-10012
▁herring	-10013
▁horrors	-10014
▁humming	-10015
▁infants	-10016
▁invests	-10017
▁jealous	-10018
▁kicking	-10019
▁killing	-10020
▁kindred	-10021
▁knotted	-10022
▁leaders	-10023
▁lighter	-10024
▁longest	-10025
▁married	-10026
▁massive	-10027
▁members	-10028
▁miscell	-10029
▁nursing	-10030
▁omitted	-10031
▁orphans	-10032
▁outrage	-10033
▁parents	-10034
▁patched	-10035
▁portion	-10036
▁posture	-10037
▁predest	-10038
▁priests	-10039
▁profess	-10040
▁profile	-10041
▁pushing	-10042
▁raising	-10043
▁realize	-10044
▁rearing	-10045
▁relaxed	-10046
▁revelry	-10047
▁riveted	-10048
▁rounded	-10049
▁royalty	-10050
▁sallied	-10051
▁sensual	-10052
▁shallow	-10053
▁sharply	-10054
▁shifted	-10055
▁sleeves	-10056
▁snuffed	-10057
▁solicit	-10058
▁spouted	-10059
▁squalls	-10060
▁stamped	-10061
▁stately	-10062
▁stirred	-10063
▁stooped	-10064
▁strikes	-10065
▁stuffed	-10066
▁suffice	-10067
▁supreme	-10068
▁symmetr	-10069
▁tarpaul	-10070
▁therein	-10071
▁thickly	-10072
▁timbers	-10073
▁topmost	-10074
▁tracing	-10075
▁transom	-10076
▁triumph	-10077
▁tumbled	-10078
▁unconqu	-10079
▁valleys	-10080
▁version	-10081
▁watched	-10082
▁wharves	-10083
▁whisper	-10084
▁yielded	-10085
Exercises	-10086
freighted	-10087
hetically	-10088
ictionary	-10089
iscovered	-10090
istically	-10091
itatingly	-10092
matically	-10093
mentioned	-10094
opatholog	-10095
relations	-10096
ronically	-10097
sociation	-10098
▁Bernheim	-10099
▁December	-10100
▁Inasmuch	-10101
▁Jungfrau	-10102
▁Likewise	-10103
▁National	-10104
▁Pleasure	-10105
▁Saturday	-10106
▁Venetian	-10107
▁abstract	-10108
▁adequate	-10109
▁adhering	-10110
▁advances	-10111
▁adventur	-10112
▁agencies	-10113
▁allusion	-10114
▁ambition	-10115
▁analyses	-10116
▁ascended	-10117
▁assaults	-10118
▁asserted	-10119
▁assisted	-10120
▁billiard	-10121
▁blending	-10122
▁blinding	-10123
▁boarding	-10124
▁breaches	-10125
▁ceremony	-10126
▁cheerful	-10127
▁cheering	-10128
▁circular	-10129
▁clenched	-10130
▁commerce	-10131
▁complain	-10132
▁conceive	-10133
▁concepts	-10134
▁consumed	-10135
▁conveyed	-10136
▁counting	-10137
▁crowding	-10138
▁defiance	-10139
▁delusion	-10140
▁deserves	-10141
▁devoured	-10142
▁displays	-10143
▁diverges	-10144
▁doctrine	-10145
▁earliest	-10146
▁eastward	-10147
▁economic	-10148
▁electric	-10149
▁embraced	-10150
▁embraces	-10151
▁equality	-10152
▁excluded	-10153
▁existing	-10154
▁expanded	-10155
▁expenses	-10156
▁exterior	-10157
▁fiercely	-10158
▁flashing	-10159
▁flourish	-10160
▁forwards	-10161
▁furthest	-10162
▁gamesome	-10163
▁genitals	-10164
▁gestures	-10165
▁goodness	-10166
▁governor	-10167
▁headsmen	-10168
▁helpless	-10169
▁identity	-10170
▁imminent	-10171
▁imposing	-10172
▁incorpor	-10173
▁inferred	-10174
▁innocent	-10175
▁interven	-10176
▁involves	-10177
▁kneeling	-10178
▁lanterns	-10179
▁launched	-10180
▁leathern	-10181
▁lifetime	-10182
▁lingered	-10183
▁maternal	-10184
▁mildness	-10185
▁mistakes	-10186
▁mumbling	-10187
▁narrated	-10188
▁nowadays	-10189
▁painting	-10190
▁pitching	-10191
▁porpoise	-10192
▁portents	-10193
▁predomin	-10194
▁pursuers	-10195
▁puzzling	-10196
▁quarters	-10197
▁reaction	-10198
▁recorded	-10199
▁referred	-10200
▁reliable	-10201
▁reminisc	-10202
▁remonstr	-10203
▁removing	-10204
▁residues	-10205
▁resorted	-10206
▁resuming	-10207
▁reverend	-10208
▁revolved	-10209
▁schooner	-10210
▁scraping	-10211
▁semicirc	-10212
▁sentence	-10213
▁settling	-10214
▁shouting	-10215
▁shrouded	-10216
▁slipping	-10217
▁snatched	-10218
▁soothing	-10219
▁southern	-10220
▁specimen	-10221
▁standers	-10222
▁stooping	-10223
▁struggle	-10224
▁suffered	-10225
▁superfic	-10226
▁swarming	-10227
▁tangible	-10228
▁timidity	-10229
▁twilight	-10230
▁unfathom	-10231
▁unfortun	-10232
▁unharmed	-10233
▁unwonted	-10234
▁vengeful	-10235
▁vertical	-10236
▁volition	-10237
▁wheeling	-10238
▁youthful	-10239
ologically	-10240
tiological	-10241
▁Antarctic	-10242
▁Sometimes	-10243
▁Uniformly	-10244
▁admirable	-10245
▁adventure	-10246
▁ambiguous	-10247
▁appearing	-10248
▁assertion	-10249
▁attaining	-10250
▁attitudes	-10251
▁authentic	-10252
▁backwards	-10253
▁bedfellow	-10254
▁celestial	-10255
▁committed	-10256
▁completes	-10257
▁confusion	-10258
▁continent	-10259
▁countless	-10260
▁credulous	-10261
▁declaring	-10262
▁determine	-10263
▁diagnosis	-10264
▁discussed	-10265
▁dismasted	-10266
▁distorted	-10267
▁entertain	-10268
▁excessive	-10269
▁extracted	-10270
▁favourite	-10271
▁financial	-10272
▁fortitude	-10273
▁frankness	-10274
▁furniture	-10275
▁incessant	-10276
▁inference	-10277
▁inflicted	-10278
▁innocence	-10279
▁inquiring	-10280
▁intricate	-10281
▁liability	-10282
▁listening	-10283
▁momentous	-10284
▁movements	-10285
▁murderers	-10286
▁mysteries	-10287
▁obstacles	-10288
▁obviously	-10289
▁organized	-10290
▁paralyses	-10291
▁partially	-10292
▁philosoph	-10293
▁posterity	-10294
▁practised	-10295
▁precision	-10296
▁prejudice	-10297
▁preserved	-10298
▁professor	-10299
▁promising	-10300
▁prospects	-10301
▁reactions	-10302
▁reasoning	-10303
▁reception	-10304
▁recovered	-10305
▁rejecting	-10306
▁reservoir	-10307
▁respected	-10308
▁revealing	-10309
▁salvation	-10310
▁scorching	-10311
▁senseless	-10312
▁skeletons	-10313
▁splinters	-10314
▁suggested	-10315
▁supposing	-10316
▁surrender	-10317
▁suspected	-10318
▁trembling	-10319
▁uncomfort	-10320
▁unusually	-10321
▁uttermost	-10322
▁varieties	-10323
▁veritable	-10324
▁vibration	-10325
▁vivacious	-10326
▁wherefore	-10327
▁Apparently	-10328
▁Belshazzar	-10329
▁Convergent	-10330
▁Englishman	-10331
▁Euroclydon	-10332
▁Langsdorff	-10333
▁Washington	-10334
▁aboriginal	-10335
▁affrighted	-10336
▁announcing	-10337
▁astonished	-10338
▁benevolent	-10339
▁commanding	-10340
▁confounded	-10341
▁coronation	-10342
▁correspond	-10343
▁curriculum	-10344
▁defendants	-10345
▁deliberate	-10346
▁department	-10347
▁designated	-10348
▁disordered	-10349
▁encounters	-10350
▁equatorial	-10351
▁familiarly	-10352
▁frequented	-10353
▁fulfilment	-10354
▁hospitable	-10355
▁humorously	-10356
▁impatience	-10357
▁impressive	-10358
▁incestuous	-10359
▁incomplete	-10360
▁infinitely	-10361
▁intuitions	-10362
▁literature	-10363
▁mentioning	-10364
▁oftentimes	-10365
▁omnipotent	-10366
▁operations	-10367
▁passengers	-10368
▁passionate	-10369
▁pathogenic	-10370
▁prejudices	-10371
▁prevailing	-10372
▁promontory	-10373
▁protracted	-10374
▁repeatedly	-10375
▁repetition	-10376
▁ridiculous	-10377
▁separating	-10378
▁struggling	-10379
▁succession	-10380
▁suspicions	-10381
▁triangular	-10382
▁undertaken	-10383
preservation	-10384
▁Furthermore	-10385
▁Mississippi	-10386
▁Preparation	-10387
▁Spitzbergen	-10388
▁accumulated	-10389
▁attentively	-10390
▁calculating	-10391
▁convictions	-10392
▁deliverance	-10393
▁discernible	-10394
▁disposition	-10395
▁educational	-10396
▁enlightened	-10397
▁examination	-10398
▁expenditure	-10399
▁experiments	-10400
▁imaginative	-10401
▁incredulous	-10402
▁indications	-10403
▁inhabitants	-10404
▁instruction	-10405
▁interchange	-10406
▁legislature	-10407
▁necessities	-10408
▁obsessional	-10409
▁replenished	-10410
▁speculative	-10411
▁tempestuous	-10412
▁transferred	-10413
▁undesirable	-10414
▁undeviating	-10415
▁universally	-10416
▁worshipping	-10417
obiographical	-10418
▁Applications	-10419
▁Confessional	-10420
▁Consequences	-10421
▁Introduction	-10422
▁accidentally	-10423
▁achievements	-10424
▁civilization	-10425
▁concentrated	-10426
▁confirmation	-10427
▁establishing	-10428
▁expectations	-10429
▁explanations	-10430
▁handkerchief	-10431
▁horizontally	-10432
▁instructions	-10433
▁insufferable	-10434
▁modification	-10435
▁narcissistic	-10436
▁necessitates	-10437
▁prohibitions	-10438
▁reproduction	-10439
▁schoolmaster	-10440
▁straightened	-10441
▁substituting	-10442
▁superstition	-10443
▁unimaginable	-10444
▁Psychoanalyse	-10445
▁apprehensions	-10446
▁archipelagoes	-10447
▁contradiction	-10448
▁hieroglyphics	-10449
▁insignificant	-10450
▁instantaneous	-10451
▁preternatural	-10452
▁superstitions	-10453
▁unconditional	-10454
▁Interpretation	-10455
▁contemporaries	-10456
▁demonstrations	-10457
▁psychoanalysts	-10458
▁psychoanalytic	-10459
▁characteristics	-10460
)—	-10461
.7	-10462
.8	-10463
15	-10464
19	-10465
96	-10466
;’	-10467
?)	-10468
Ad	-10469
Al	-10470
By	-10471
Du	-10472
IA	-10473
Me	-10474
OG	-10475
PH	-10476
Pl	-10477
UO	-10478
VI	-10479
[2	-10480
fo	-10481
mm	-10482
sl	-10483
yl	-10484
—(	-10485
.4.	-10486
.5.	-10487
.6.	-10488
.8.	-10489
.[1	-10490
00.	-10491
14,	-10492
3),	-10493
ACH	-10494
ART	-10495
Are	-10496
BOO	-10497
Def	-10498
EME	-10499
HAT	-10500
IMO	-10501
IRE	-10502
IVE	-10503
NSE	-10504
NUE	-10505
ORE	-10506
OSE	-10507
RIB	-10508
Rec	-10509
Sub	-10510
ada	-10511
adv	-10512
ady	-10513
ags	-10514
ahr	-10515
ait	-10516
apy	-10517
aux	-10518
bbe	-10519
bud	-10520
cle	-10521
clo	-10522
dev	-10523
did	-10524
din	-10525
eny	-10526
erg	-10527
fts	-10528
gee	-10529
him	-10530
ias	-10531
iel	-10532
ili	-10533
ipt	-10534
irm	-10535
itc	-10536
ius	-10537
lay	-10538
lem	-10539
may	-10540
oda	-10541
ode	-10542
oor	-10543
oph	-10544
opy	-10545
oty	-10546
pow	-10547
pre	-10548
ray	-10549
rep	-10550
rol	-10551
rsk	-10552
say	-10553
six	-10554
sus	-10555
tal	-10556
tee	-10557
tub	-10558
uls	-10559
ums	-10560
ups	-10561
urm	-10562
usi	-10563
uts	-10564
voc	-10565
win	-10566
——”	-10567
”),	-10568
▁(“	-10569
▁1:	-10570
▁6)	-10571
▁60	-10572
▁8.	-10573
▁9.	-10574
▁BE	-10575
▁CO	-10576
▁IN	-10577
▁eg	-10578
▁ey	-10579
▁—“	-10580
:14]	-10581
:24]	-10582
:28]	-10583
:30]	-10584
Cont	-10585
Gold	-10586
Hall	-10587
Hist	-10588
Mast	-10589
NUEE	-10590
RAPH	-10591
Rose	-10592
SCII	-10593
Sing	-10594
Some	-10595
Stri	-10596
Turn	-10597
abel	-10598
adiz	-10599
agog	-10600
anke	-10601
anse	-10602
anth	-10603
apse	-10604
assy	-10605
aved	-10606
bbee	-10607
bern	-10608
bows	-10609
bted	-10610
bull	-10611
butt	-10612
ccas	-10613
cend	-10614
cery	-10615
cile	-10616
coal	-10617
coll	-10618
dler	-10619
drew	-10620
dued	-10621
easy	-10622
edge	-10623
eles	-10624
elst	-10625
even	-10626
exic	-10627
ftly	-10628
give	-10629
good	-10630
hara	-10631
have	-10632
hung	-10633
ifts	-10634
ilet	-10635
ille	-10636
ilot	-10637
inch	-10638
iner	-10639
inth	-10640
iped	-10641
irit	-10642
irra	-10643
iscr	-10644
istr	-10645
ital	-10646
itan	-10647
jack	-10648
laid	-10649
lder	-10650
lics	-10651
lict	-10652
loon	-10653
love	-10654
male	-10655
mble	-10656
mong	-10657
much	-10658
namb	-10659
ndry	-10660
ners	-10661
ober	-10662
oday	-10663
omas	-10664
omer	-10665
omit	-10666
ooks	-10667
opol	-10668
orde	-10669
oric	-10670
orks	-10671
ossy	-10672
otem	-10673
pans	-10674
part	-10675
play	-10676
poll	-10677
ptic	-10678
quis	-10679
raum	-10680
roke	-10681
same	-10682
seen	-10683
shar	-10684
sick	-10685
sman	-10686
tery	-10687
test	-10688
tesy	-10689
tics	-10690
tide	-10691
toss	-10692
tubs	-10693
ture	-10694
unce	-10695
unge	-10696
urer	-10697
urry	-10698
vard	-10699
vert	-10700
wart	-10701
weet	-10702
wide	-10703
▁10,	-10704
▁14.	-10705
▁141	-10706
▁15.	-10707
▁16.	-10708
▁184	-10709
▁185	-10710
▁19.	-10711
▁20.	-10712
▁22.	-10713
▁23.	-10714
▁314	-10715
▁ALL	-10716
▁AND	-10717
▁Add	-10718
▁Ark	-10719
▁Arm	-10720
▁Bay	-10721
▁Bri	-10722
▁Bud	-10723
▁Cal	-10724
▁Che	-10725
▁Cod	-10726
▁Cro	-10727
▁Cur	-10728
▁Cut	-10729
▁DUO	-10730
▁Dar	-10731
▁Det	-10732
▁Dis	-10733
▁Edu	-10734
▁FRE	-10735
▁Hel	-10736
▁Hun	-10737
▁IND	-10738
▁Ins	-10739
▁Jup	-10740
▁LIA	-10741
▁Mel	-10742
▁Men	-10743
▁Mir	-10744
▁Neu	-10745
▁Obs	-10746
▁Off	-10747
▁Pri	-10748
▁Reg	-10749
▁Set	-10750
▁Sig	-10751
▁Sla	-10752
▁Sus	-10753
▁Tex	-10754
▁Unt	-10755
▁Wal	-10756
▁Web	-10757
▁Yea	-10758
▁ard	-10759
▁baw	-10760
▁bon	-10761
▁bru	-10762
▁bye	-10763
▁dup	-10764
▁etc	-10765
▁eve	-10766
▁exh	-10767
▁fog	-10768
▁gin	-10769
▁gor	-10770
▁gul	-10771
▁hay	-10772
▁hip	-10773
▁icy	-10774
▁isn	-10775
▁kid	-10776
▁lac	-10777
▁lik	-10778
▁liv	-10779
▁loo	-10780
▁mix	-10781
▁mum	-10782
▁pod	-10783
▁pon	-10784
▁riv	-10785
▁sne	-10786
▁sob	-10787
▁tip	-10788
▁ubi	-10789
▁unv	-10790
▁vag	-10791
▁vow	-10792
▁wad	-10793
▁yaw	-10794
ANISH	-10795
ATION	-10796
Aloft	-10797
Contr	-10798
EMENT	-10799
IRECT	-10800
Never	-10801
Plain	-10802
Psych	-10803
Quick	-10804
Sperm	-10805
Trans	-10806
acing	-10807
alted	-10808
alter	-10809
amboo	-10810
anthe	-10811
apeut	-10812
apsed	-10813
aract	-10814
ardly	-10815
arson	-10816
asies	-10817
asion	-10818
assed	-10819
aways	-10820
balls	-10821
bench	-10822
books	-10823
brevi	-10824
byter	-10825
chest	-10826
child	-10827
cible	-10828
ckled	-10829
cruet	-10830
cture	-10831
devil	-10832
eenth	-10833
endom	-10834
ermon	-10835
every	-10836
field	-10837
fleet	-10838
force	-10839
forty	-10840
found	-10841
hable	-10842
hames	-10843
hange	-10844
heric	-10845
icing	-10846
idesp	-10847
imble	-10848
ipher	-10849
iproc	-10850
irted	-10851
ishly	-10852
isons	-10853
itent	-10854
itime	-10855
ivial	-10856
luent	-10857
metic	-10858
might	-10859
never	-10860
nyder	-10861
ocity	-10862
ognom	-10863
onder	-10864
onomy	-10865
ontis	-10866
orded	-10867
orean	-10868
oried	-10869
osity	-10870
osted	-10871
othic	-10872
oughs	-10873
oving	-10874
pents	-10875
poons	-10876
ptile	-10877
pulch	-10878
quick	-10879
ribly	-10880
rings	-10881
rists	-10882
roken	-10883
rooms	-10884
ropol	-10885
ruped	-10886
screw	-10887
secut	-10888
separ	-10889
since	-10890
spout	-10891
stern	-10892
sters	-10893
still	-10894
stock	-10895
table	-10896
teran	-10897
tingu	-10898
toman	-10899
truck	-10900
tured	-10901
ublic	-10902
ulity	-10903
umble	-10904
unken	-10905
uters	-10906
utral	-10907
utter	-10908
verse	-10909
▁1.3.	-10910
▁1.6.	-10911
▁Alas	-10912
▁Alex	-10913
▁Auth	-10914
▁Call	-10915
▁Cann	-10916
▁Cast	-10917
▁Comm	-10918
▁Comp	-10919
▁DIST	-10920
▁Damn	-10921
▁Desp	-10922
▁EBOO	-10923
▁Ersk	-10924
▁Ever	-10925
▁FULL	-10926
▁Full	-10927
▁Garn	-10928
▁Hump	-10929
▁Isle	-10930
▁Jahr	-10931
▁LICE	-10932
▁Lion	-10933
▁Miss	-10934
▁Moss	-10935
▁Move	-10936
▁Peru	-10937
▁Poly	-10938
▁Port	-10939
▁Poss	-10940
▁Prom	-10941
▁Rank	-10942
▁Sabb	-10943
▁Self	-10944
▁THAT	-10945
▁Tert	-10946
▁Ther	-10947
▁View	-10948
▁Wood	-10949
▁abre	-10950
▁adro	-10951
▁ampl	-10952
▁area	-10953
▁aven	-10954
▁bagg	-10955
▁bann	-10956
▁begg	-10957
▁belt	-10958
▁bite	-10959
▁cart	-10960
▁coal	-10961
▁conj	-10962
▁cope	-10963
▁cork	-10964
▁coup	-10965
▁cran	-10966
▁cree	-10967
▁cups	-10968
▁cuts	-10969
▁dain	-10970
▁dand	-10971
▁desk	-10972
▁diet	-10973
▁ding	-10974
▁eats	-10975
▁echo	-10976
▁elim	-10977
▁enam	-10978
▁enge	-10979
▁enjo	-10980
▁fart	-10981
▁ferv	-10982
▁flog	-10983
▁fors	-10984
▁fuel	-10985
▁gaff	-10986
▁gard	-10987
▁gasp	-10988
▁gene	-10989
▁gets	-10990
▁grav	-10991
▁gull	-10992
▁guns	-10993
▁hams	-10994
▁hark	-10995
▁hasn	-10996
▁hats	-10997
▁hawk	-10998
▁haws	-10999
▁heap	-11000
▁hing	-11001
▁howl	-11002
▁hypo	-11003
▁idle	-11004
▁idly	-11005
▁inha	-11006
▁item	-11007
▁jave	-11008
▁joll	-11009
▁kitc	-11010
▁lard	-11011
▁lull	-11012
▁maid	-11013
▁maim	-11014
▁marb	-11015
▁meal	-11016
▁neat	-11017
▁nurs	-11018
▁oily	-11019
▁ours	-11020
▁pals	-11021
▁pelt	-11022
▁pend	-11023
▁pest	-11024
▁plug	-11025
▁pods	-11026
▁puts	-11027
▁rall	-11028
▁ramp	-11029
▁rein	-11030
▁riot	-11031
▁roof	-11032
▁ruth	-11033
▁sane	-11034
▁saun	-11035
▁sees	-11036
▁seet	-11037
▁shin	-11038
▁sinn	-11039
▁sire	-11040
▁slay	-11041
▁spat	-11042
▁stab	-11043
▁stal	-11044
▁sulk	-11045
▁trod	-11046
▁twit	-11047
▁unab	-11048
▁ungr	-11049
▁unpr	-11050
▁usur	-11051
▁verb	-11052
▁virt	-11053
▁ware	-11054
▁wert	-11055
▁wrap	-11056
/17324	-11057
/17327	-11058
Cauchy	-11059
DECIMO	-11060
Harbor	-11061
Header	-11062
amount	-11063
arance	-11064
arious	-11065
arking	-11066
asures	-11067
atures	-11068
barrel	-11069
barrow	-11070
canoes	-11071
cepted	-11072
chance	-11073
chment	-11074
donate	-11075
encing	-11076
entral	-11077
erated	-11078
erness	-11079
etheus	-11080
forced	-11081
formed	-11082
haired	-11083
handle	-11084
idious	-11085
ifford	-11086
ifully	-11087
imming	-11088
issism	-11089
istent	-11090
isters	-11091
isture	-11092
ivings	-11093
ivious	-11094
knives	-11095
lacing	-11096
licity	-11097
making	-11098
nambul	-11099
nights	-11100
okened	-11101
ources	-11102
owders	-11103
oyalty	-11104
pended	-11105
places	-11106
ppings	-11107
rampus	-11108
rapped	-11109
retion	-11110
rewell	-11111
ricade	-11112
rimsha	-11113
romeda	-11114
spades	-11115
stones	-11116
string	-11117
teenth	-11118
thened	-11119
twenty	-11120
ulence	-11121
ulsion	-11122
umbers	-11123
whales	-11124
ximity	-11125
yellow	-11126
▁1.8.2	-11127
▁AGREE	-11128
▁ASCII	-11129
▁Above	-11130
▁Adapt	-11131
▁Broad	-11132
▁Cadiz	-11133
▁Chace	-11134
▁Cross	-11135
▁Davis	-11136
▁Etern	-11137
▁Grant	-11138
▁Huzza	-11139
▁Hyena	-11140
▁Judge	-11141
▁Light	-11142
▁Often	-11143
▁Pilot	-11144
▁Prair	-11145
▁Prove	-11146
▁Round	-11147
▁START	-11148
▁Satan	-11149
▁Smith	-11150
▁Spain	-11151
▁Squid	-11152
▁Story	-11153
▁Subst	-11154
▁Tahit	-11155
▁Terms	-11156
▁Third	-11157
▁Title	-11158
▁Today	-11159
▁Tower	-11160
▁Turks	-11161
▁Winds	-11162
▁Yanke	-11163
▁Years	-11164
▁aloud	-11165
▁altar	-11166
▁amput	-11167
▁anted	-11168
▁apost	-11169
▁apple	-11170
▁badly	-11171
▁balls	-11172
▁beams	-11173
▁bleak	-11174
▁blend	-11175
▁bluff	-11176
▁bolts	-11177
▁bount	-11178
▁boxes	-11179
▁brick	-11180
▁brine	-11181
▁brisk	-11182
▁brist	-11183
▁brood	-11184
▁budge	-11185
▁burns	-11186
▁carav	-11187
▁cards	-11188
▁cared	-11189
▁chaos	-11190
▁cheap	-11191
▁cling	-11192
▁clock	-11193
▁cloth	-11194
▁clung	-11195
▁coach	-11196
▁crims	-11197
▁cring	-11198
▁crush	-11199
▁curse	-11200
▁darts	-11201
▁dedic	-11202
▁deeps	-11203
▁defin	-11204
▁delay	-11205
▁dined	-11206
▁disse	-11207
▁drags	-11208
▁dress	-11209
▁eagle	-11210
▁ebook	-11211
▁efful	-11212
▁embod	-11213
▁energ	-11214
▁enhan	-11215
▁evade	-11216
▁exped	-11217
▁facet	-11218
▁facil	-11219
▁fairy	-11220
▁falls	-11221
▁fangs	-11222
▁fault	-11223
▁feeds	-11224
▁files	-11225
▁fishy	-11226
▁frock	-11227
▁fruit	-11228
▁gable	-11229
▁gills	-11230
▁grizz	-11231
▁gross	-11232
▁havoc	-11233
▁hides	-11234
▁idiot	-11235
▁impot	-11236
▁infat	-11237
▁ingen	-11238
▁inhib	-11239
▁jokes	-11240
▁kinds	-11241
▁laden	-11242
▁lamps	-11243
▁leaks	-11244
▁leaps	-11245
▁lexic	-11246
▁linen	-11247
▁loath	-11248
▁locks	-11249
▁lucif	-11250
▁madly	-11251
▁mirac	-11252
▁mizen	-11253
▁model	-11254
▁music	-11255
▁necks	-11256
▁noses	-11257
▁noted	-11258
▁oaths	-11259
▁opens	-11260
▁ounce	-11261
▁pairs	-11262
▁patch	-11263
▁penny	-11264
▁poets	-11265
▁prest	-11266
▁queen	-11267
▁quill	-11268
▁regal	-11269
▁reign	-11270
▁repud	-11271
▁respo	-11272
▁rifle	-11273
▁rocky	-11274
▁roses	-11275
▁sable	-11276
▁scale	-11277
▁scrut	-11278
▁sheer	-11279
▁shove	-11280
▁silly	-11281
▁slabs	-11282
▁slant	-11283
▁slept	-11284
▁sloop	-11285
▁socks	-11286
▁sport	-11287
▁spots	-11288
▁stays	-11289
▁steed	-11290
▁stirs	-11291
▁tawny	-11292
▁teles	-11293
▁tenth	-11294
▁texts	-11295
▁theme	-11296
▁thres	-11297
▁thumb	-11298
▁thund	-11299
▁tools	-11300
▁tramp	-11301
▁tusks	-11302
▁types	-11303
▁umbre	-11304
▁uncle	-11305
▁undec	-11306
▁unequ	-11307
▁unmol	-11308
▁unple	-11309
▁unrel	-11310
▁urged	-11311
▁voyag	-11312
▁waste	-11313
▁whitt	-11314
▁yoked	-11315
▁zones	-11316
Morning	-11317
Nothing	-11318
Thunder	-11319
animous	-11320
elstrom	-11321
engaged	-11322
entieth	-11323
holding	-11324
hunters	-11325
iferous	-11326
iluvian	-11327
inating	-11328
justice	-11329
keepers	-11330
lorious	-11331
measure	-11332
monster	-11333
nothing	-11334
olently	-11335
ologies	-11336
onymous	-11337
osoever	-11338
plexity	-11339
portant	-11340
raneous	-11341
running	-11342
scuttle	-11343
thology	-11344
uteness	-11345
veloped	-11346
▁BREACH	-11347
▁Bouton	-11348
▁Cetace	-11349
▁Coming	-11350
▁Deacon	-11351
▁Deuter	-11352
▁Fossil	-11353
▁Gothic	-11354
▁Ground	-11355
▁Guinea	-11356
▁Harbor	-11357
▁Hunter	-11358
▁Martha	-11359
▁Matter	-11360
▁Panthe	-11361
▁Papers	-11362
▁People	-11363
▁Platon	-11364
▁Priest	-11365
▁Script	-11366
▁Should	-11367
▁Spirit	-11368
▁Street	-11369
▁Tartar	-11370
▁Thames	-11371
▁Thinks	-11372
▁Virtue	-11373
▁Warden	-11374
▁abomin	-11375
▁abound	-11376
▁afresh	-11377
▁agency	-11378
▁aghast	-11379
▁allude	-11380
▁ancest	-11381
▁anoint	-11382
▁apothe	-11383
▁appeal	-11384
▁argued	-11385
▁armies	-11386
▁assemb	-11387
▁barrow	-11388
▁beaver	-11389
▁begged	-11390
▁bewild	-11391
▁biting	-11392
▁breach	-11393
▁bridal	-11394
▁brings	-11395
▁buckle	-11396
▁burial	-11397
▁cables	-11398
▁cheers	-11399
▁chewed	-11400
▁chicha	-11401
▁claims	-11402
▁cliffs	-11403
▁cogent	-11404
▁consol	-11405
▁crater	-11406
▁craven	-11407
▁create	-11408
▁curses	-11409
▁curved	-11410
▁darkly	-11411
▁defile	-11412
▁dented	-11413
▁desist	-11414
▁detect	-11415
▁detest	-11416
▁disreg	-11417
▁doctor	-11418
▁dreamy	-11419
▁dromed	-11420
▁duplic	-11421
▁eighty	-11422
▁embell	-11423
▁empire	-11424
▁ensued	-11425
▁essays	-11426
▁expose	-11427
▁fallen	-11428
▁fathom	-11429
▁fights	-11430
▁fishes	-11431
▁flowed	-11432
▁formal	-11433
▁frosty	-11434
▁genial	-11435
▁gladly	-11436
▁glared	-11437
▁glassy	-11438
▁gleams	-11439
▁grapes	-11440
▁guests	-11441
▁harder	-11442
▁hinter	-11443
▁hissed	-11444
▁horrid	-11445
▁humane	-11446
▁humped	-11447
▁hunger	-11448
▁indust	-11449
▁inflex	-11450
▁insane	-11451
▁insect	-11452
▁inward	-11453
▁joyous	-11454
▁junior	-11455
▁justly	-11456
▁keenly	-11457
▁kindly	-11458
▁labors	-11459
▁limber	-11460
▁limits	-11461
▁locker	-11462
▁lowest	-11463
▁lubber	-11464
▁lustre	-11465
▁mainly	-11466
▁medull	-11467
▁melted	-11468
▁mirror	-11469
▁misery	-11470
▁mizzen	-11471
▁mortar	-11472
▁mounts	-11473
▁mowers	-11474
▁nobler	-11475
▁occult	-11476
▁occurs	-11477
▁offing	-11478
▁openly	-11479
▁pagans	-11480
▁paraly	-11481
▁parcel	-11482
▁patent	-11483
▁pedest	-11484
▁peeled	-11485
▁peered	-11486
▁planet	-11487
▁poetic	-11488
▁portly	-11489
▁pounds	-11490
▁prayer	-11491
▁preach	-11492
▁prince	-11493
▁prosec	-11494
▁puzzle	-11495
▁quoted	-11496
▁ragged	-11497
▁reappe	-11498
▁redden	-11499
▁relics	-11500
▁relish	-11501
▁ringed	-11502
▁sabbee	-11503
▁scheme	-11504
▁scores	-11505
▁scrape	-11506
▁scraps	-11507
▁sermon	-11508
▁shaken	-11509
▁shapes	-11510
▁sheath	-11511
▁shiver	-11512
▁shoots	-11513
▁skirts	-11514
▁snugly	-11515
▁solved	-11516
▁speaks	-11517
▁splice	-11518
▁stifle	-11519
▁strand	-11520
▁straps	-11521
▁stroll	-11522
▁subdiv	-11523
▁sucked	-11524
▁sultan	-11525
▁sundry	-11526
▁superl	-11527
▁swears	-11528
▁swerve	-11529
▁tallow	-11530
▁tantal	-11531
▁tasted	-11532
▁testim	-11533
▁thirds	-11534
▁tierce	-11535
▁tinker	-11536
▁towers	-11537
▁traces	-11538
▁tragic	-11539
▁treats	-11540
▁tribes	-11541
▁tropic	-11542
▁tufted	-11543
▁unjust	-11544
▁unsupp	-11545
▁usages	-11546
▁vapors	-11547
▁velvet	-11548
▁victor	-11549
▁visits	-11550
▁walled	-11551
▁walrus	-11552
▁waning	-11553
▁washed	-11554
▁widesp	-11555
▁wishes	-11556
▁wrecks	-11557
Analytic	-11558
analysts	-11559
cedented	-11560
cription	-11561
etically	-11562
hemently	-11563
inations	-11564
instinct	-11565
iscrimin	-11566
lacement	-11567
omething	-11568
peration	-11569
renching	-11570
structed	-11571
uttering	-11572
▁Bennett	-11573
▁Between	-11574
▁Burtons	-11575
▁Congreg	-11576
▁DAMAGES	-11577
▁DISTRIB	-11578
▁Emperor	-11579
▁Erskine	-11580
▁Evangel	-11581
▁Example	-11582
▁Garnery	-11583
▁Harvard	-11584
▁Indians	-11585
▁Johnson	-11586
▁Jupiter	-11587
▁LICENSE	-11588
▁Ottoman	-11589
▁Problem	-11590
▁Prophet	-11591
▁Royalty	-11592
▁Russian	-11593
▁Sabbath	-11594
▁Sigmund	-11595
▁Squires	-11596
▁Usually	-11597
▁Vanilla	-11598
▁abbrevi	-11599
▁acquies	-11600
▁adapted	-11601
▁amnesia	-11602
▁angular	-11603
▁appoint	-11604
▁assault	-11605
▁attract	-11606
▁authors	-11607
▁backing	-11608
▁banquet	-11609
▁biology	-11610
▁blunder	-11611
▁boasted	-11612
▁boister	-11613
▁bracing	-11614
▁branded	-11615
▁breezes	-11616
▁buckets	-11617
▁bumpkin	-11618
▁captive	-11619
▁causing	-11620
▁cistern	-11621
▁clapped	-11622
▁clothed	-11623
▁cluster	-11624
▁control	-11625
▁conveys	-11626
▁corners	-11627
▁counsel	-11628
▁crowded	-11629
▁crystal	-11630
▁damages	-11631
▁descent	-11632
▁despite	-11633
▁destiny	-11634
▁devious	-11635
▁devoted	-11636
▁digress	-11637
▁disdain	-11638
▁dolphin	-11639
▁dreaded	-11640
▁dubious	-11641
▁ducking	-11642
▁eddying	-11643
▁elusive	-11644
▁embrace	-11645
▁employe	-11646
▁enabled	-11647
▁enacted	-11648
▁ensuing	-11649
▁enthusi	-11650
▁evangel	-11651
▁exagger	-11652
▁exalted	-11653
▁fathers	-11654
▁federal	-11655
▁fixedly	-11656
▁flowers	-11657
▁frankly	-11658
▁freedom	-11659
▁funeral	-11660
▁gangway	-11661
▁gasping	-11662
▁generic	-11663
▁glories	-11664
▁glowing	-11665
▁gravity	-11666
▁grooves	-11667
▁groping	-11668
▁happily	-11669
▁harvest	-11670
▁hauling	-11671
▁haunted	-11672
▁headway	-11673
▁healing	-11674
▁hearses	-11675
▁hissing	-11676
▁holiest	-11677
▁imparts	-11678
▁impious	-11679
▁implied	-11680
▁imposes	-11681
▁inadequ	-11682
▁inquire	-11683
▁insular	-11684
▁jackets	-11685
▁jamming	-11686
▁javelin	-11687
▁kitchen	-11688
▁lacking	-11689
▁letting	-11690
▁library	-11691
▁likened	-11692
▁masters	-11693
▁meanest	-11694
▁million	-11695
▁monoton	-11696
▁muscles	-11697
▁muskets	-11698
▁neutral	-11699
▁nucleus	-11700
▁oftener	-11701
▁oneself	-11702
▁opposed	-11703
▁overpow	-11704
▁paddles	-11705
▁pasture	-11706
▁peoples	-11707
▁picking	-11708
▁pierced	-11709
▁pioneer	-11710
▁plaited	-11711
▁pleated	-11712
▁plumage	-11713
▁presume	-11714
▁primacy	-11715
▁propose	-11716
▁puffing	-11717
▁quicker	-11718
▁quitted	-11719
▁receipt	-11720
▁redness	-11721
▁reeling	-11722
▁rehears	-11723
▁relieve	-11724
▁reminds	-11725
▁reprodu	-11726
▁reptile	-11727
▁returns	-11728
▁reverse	-11729
▁revolve	-11730
▁rightly	-11731
▁ringing	-11732
▁rubbing	-11733
▁saddest	-11734
▁satisfy	-11735
▁sepulch	-11736
▁sharper	-11737
▁shipwre	-11738
▁sinners	-11739
▁spheres	-11740
▁spotted	-11741
▁stagger	-11742
▁stating	-11743
▁stiffly	-11744
▁streams	-11745
▁strives	-11746
▁subdued	-11747
▁surpass	-11748
▁tendons	-11749
▁tidings	-11750
▁toiling	-11751
▁torrent	-11752
▁typical	-11753
▁unalter	-11754
▁unavoid	-11755
▁uttered	-11756
▁vaguely	-11757
▁varying	-11758
▁veteran	-11759
▁vinegar	-11760
▁visions	-11761
▁vulture	-11762
▁warrior	-11763
▁wearing	-11764
▁wheeled	-11765
▁whereof	-11766
▁whereon	-11767
▁whirled	-11768
▁workers	-11769
▁workman	-11770
▁writers	-11771
▁younger	-11772
Duodecimo	-11773
ouncement	-11774
rescentic	-11775
therapeut	-11776
▁Analysis	-11777
▁Budapest	-11778
▁Captains	-11779
▁Chapters	-11780
▁Clifford	-11781
▁Constant	-11782
▁Doubloon	-11783
▁Elephant	-11784
▁Emperors	-11785
▁Jahrbuch	-11786
▁Learning	-11787
▁Movement	-11788
▁Northern	-11789
▁Starting	-11790
▁Suddenly	-11791
▁Tertiary	-11792
▁WARRANTY	-11793
▁absorbed	-11794
▁abundant	-11795
▁accommod	-11796
▁accosted	-11797
▁accuracy	-11798
▁agitated	-11799
▁altering	-11800
▁anchored	-11801
▁appetite	-11802
▁apprised	-11803
▁appropri	-11804
▁arranged	-11805
▁arriving	-11806
▁artistic	-11807
▁assigned	-11808
▁attacked	-11809
▁bankrupt	-11810
▁becalmed	-11811
▁behavior	-11812
▁believes	-11813
▁boarders	-11814
▁borrowed	-11815
▁brothers	-11816
▁bubbling	-11817
▁buoyancy	-11818
▁capacity	-11819
▁careless	-11820
▁cataract	-11821
▁caulking	-11822
▁cerebral	-11823
▁cetology	-11824
▁chancing	-11825
▁changing	-11826
▁cheerily	-11827
▁childish	-11828
▁clearing	-11829
▁collabor	-11830
▁commands	-11831
▁composed	-11832
▁computer	-11833
▁conceits	-11834
▁confused	-11835
▁constell	-11836
▁contract	-11837
▁convince	-11838
▁counters	-11839
▁courtesy	-11840
▁cracking	-11841
▁cultural	-11842
▁decisive	-11843
▁definite	-11844
▁depicted	-11845
▁desolate	-11846
▁develops	-11847
▁disaster	-11848
▁dramatic	-11849
▁drawings	-11850
▁drinking	-11851
▁envelope	-11852
▁escaping	-11853
▁evidence	-11854
▁examples	-11855
▁exercise	-11856
▁extracts	-11857
▁fabulous	-11858
▁ferocity	-11859
▁fetching	-11860
▁fidelity	-11861
▁fireside	-11862
▁genealog	-11863
▁glimpses	-11864
▁globular	-11865
▁glorious	-11866
▁gorgeous	-11867
▁graceful	-11868
▁gracious	-11869
▁handfuls	-11870
▁hearties	-11871
▁heartily	-11872
▁heedless	-11873
▁hurrying	-11874
▁hypothes	-11875
▁includes	-11876
▁incompet	-11877
▁indicate	-11878
▁inducing	-11879
▁indulged	-11880
▁invented	-11881
▁invoking	-11882
▁juggling	-11883
▁juncture	-11884
▁laborers	-11885
▁laughing	-11886
▁listened	-11887
▁lucifers	-11888
▁luckless	-11889
▁maddened	-11890
▁manifold	-11891
▁marchant	-11892
▁maritime	-11893
▁meanings	-11894
▁meantime	-11895
▁methinks	-11896
▁metropol	-11897
▁mischief	-11898
▁moisture	-11899
▁multitud	-11900
▁nautical	-11901
▁negative	-11902
▁nurtured	-11903
▁offering	-11904
▁operated	-11905
▁palpable	-11906
▁patience	-11907
▁phantasy	-11908
▁piercing	-11909
▁planting	-11910
▁politely	-11911
▁pondered	-11912
▁portrait	-11913
▁prairies	-11914
▁preacher	-11915
▁priority	-11916
▁products	-11917
▁prophecy	-11918
▁provides	-11919
▁quietude	-11920
▁quitting	-11921
▁rattling	-11922
▁receives	-11923
▁reciproc	-11924
▁rejected	-11925
▁relative	-11926
▁renounce	-11927
▁resulted	-11928
▁reversed	-11929
▁rippling	-11930
▁rounding	-11931
▁rudiment	-11932
▁ruthless	-11933
▁scalding	-11934
▁scolding	-11935
▁securely	-11936
▁selected	-11937
▁serenely	-11938
▁serpents	-11939
▁severest	-11940
▁sociable	-11941
▁spinning	-11942
▁splendid	-11943
▁sporting	-11944
▁standard	-11945
▁statutes	-11946
▁stirring	-11947
▁striding	-11948
▁subsided	-11949
▁sullenly	-11950
▁summoned	-11951
▁suppress	-11952
▁surmised	-11953
▁surround	-11954
▁survived	-11955
▁swallows	-11956
▁swearing	-11957
▁sympathy	-11958
▁thickest	-11959
▁torments	-11960
▁tranquil	-11961
▁triangle	-11962
▁tropical	-11963
▁tumbling	-11964
▁twisting	-11965
▁unworthy	-11966
▁ventured	-11967
▁villages	-11968
▁visiting	-11969
▁visitors	-11970
▁whiskers	-11971
▁withdraw	-11972
▁withdrew	-11973
▁yielding	-11974
Contrasted	-11975
suggestive	-11976
▁Analogous	-11977
▁Andromeda	-11978
▁Arsacides	-11979
▁Collected	-11980
▁Contribut	-11981
▁Criterion	-11982
▁DUODECIMO	-11983
▁Donations	-11984
▁Education	-11985
▁Egyptians	-11986
▁Frederick	-11987
▁Institute	-11988
▁Islanders	-11989
▁Professor	-11990
▁Propontis	-11991
▁Something	-11992
▁abundance	-11993
▁attentive	-11994
▁barricade	-11995
▁battering	-11996
▁betokened	-11997
▁bitterest	-11998
▁calculate	-11999
▁ceaseless	-12000
▁cherished	-12001
▁classical	-12002
▁collapsed	-12003
▁community	-12004
▁companies	-12005
▁complexes	-12006
▁composing	-12007
▁computers	-12008
▁condemned	-12009
▁condensed	-12010
▁confirmed	-12011
▁contrived	-12012
▁convivial	-12013
▁corporeal	-12014
▁criticism	-12015
▁crosswise	-12016
▁daughters	-12017
▁decidedly	-12018
▁demanding	-12019
▁desirable	-12020
▁dexterity	-12021
▁directing	-12022
▁disasters	-12023
▁discontin	-12024
▁discovere	-12025
▁distended	-12026
▁dromedary	-12027
▁dyspepsia	-12028
▁enamoured	-12029
▁engraving	-12030
▁evidently	-12031
▁exclusion	-12032
▁exertions	-12033
▁fantastic	-12034
▁fashioned	-12035
▁fastening	-12036
▁fountains	-12037
▁freighted	-12038
▁fulfilled	-12039
▁generated	-12040
▁heartless	-12041
▁historian	-12042
▁histories	-12043
▁household	-12044
▁imperfect	-12045
▁implement	-12046
▁insurance	-12047
▁interlude	-12048
▁isolation	-12049
▁legendary	-12050
▁literally	-12051
▁maintains	-12052
▁malignant	-12053
▁marvelled	-12054
▁mechanism	-12055
▁meridians	-12056
▁mistaking	-12057
▁monomania	-12058
▁monotonic	-12059
▁multitude	-12060
▁muttering	-12061
▁neglected	-12062
▁nominally	-12063
▁northward	-12064
▁oblivious	-12065
▁offspring	-12066
▁overheard	-12067
▁paintings	-12068
▁parchment	-12069
▁peaceable	-12070
▁pervading	-12071
▁political	-12072
▁pondering	-12073
▁powerless	-12074
▁preparing	-12075
▁projected	-12076
▁promoting	-12077
▁promotion	-12078
▁provision	-12079
▁proximity	-12080
▁punchbowl	-12081
▁purchased	-12082
▁quadruped	-12083
▁qualified	-12084
▁quivering	-12085
▁reckoning	-12086
▁recommend	-12087
▁refrained	-12088
▁relieving	-12089
▁religions	-12090
▁replacing	-12091
▁resembled	-12092
▁resorting	-12093
▁resulting	-12094
▁retreated	-12095
▁reverence	-12096
▁searching	-12097
▁seduction	-12098
▁sensation	-12099
▁shortened	-12100
▁somnambul	-12101
▁specified	-12102
▁springing	-12103
▁sprinkled	-12104
▁squeezing	-12105
▁supported	-12106
▁sustained	-12107
▁symbolism	-12108
▁telescope	-12109
▁tendinous	-12110
▁threshold	-12111
▁tolerance	-12112
▁tranquill	-12113
▁undertake	-12114
▁unsounded	-12115
▁untutored	-12116
▁unwarrant	-12117
▁willingly	-12118
▁wondering	-12119
▁wriggling	-12120
istributing	-12121
istribution	-12122
ropathology	-12123
▁Arsacidean	-12124
▁Forecastle	-12125
▁Harpooneer	-12126
▁Patagonian	-12127
▁Prometheus	-12128
▁WARRANTIES	-12129
▁addressing	-12130
▁advantages	-12131
▁adventures	-12132
▁attraction	-12133
▁background	-12134
▁beginnings	-12135
▁bethinking	-12136
▁biological	-12137
▁carpenters	-12138
▁censorship	-12139
▁colleagues	-12140
▁commercial	-12141
▁comprising	-12142
▁compromise	-12143
▁connecting	-12144
▁contracted	-12145
▁convincing	-12146
▁courageous	-12147
▁dimensions	-12148
▁disclaimer	-12149
▁discretion	-12150
▁disengaged	-12151
▁distracted	-12152
▁distrusted	-12153
▁disturbing	-12154
▁earthquake	-12155
▁elasticity	-12156
▁exhaustion	-12157
▁expressing	-12158
▁extracting	-12159
▁friendship	-12160
▁furnishing	-12161
▁geological	-12162
▁hinterland	-12163
▁hopelessly	-12164
▁ignorantly	-12165
▁indulgence	-12166
▁inevitable	-12167
▁inevitably	-12168
▁infallible	-12169
▁influenced	-12170
▁invaluable	-12171
▁invariable	-12172
▁lightnings	-12173
▁manifested	-12174
▁meditation	-12175
▁miraculous	-12176
▁misgivings	-12177
▁narcissism	-12178
▁objections	-12179
▁occurrence	-12180
▁ordinances	-12181
▁overcoming	-12182
▁penetrated	-12183
▁perplexity	-12184
▁principles	-12185
▁privileged	-12186
▁references	-12187
▁registered	-12188
▁represents	-12189
▁respective	-12190
▁roundabout	-12191
▁sauntering	-12192
▁singularly	-12193
▁spectacles	-12194
▁stationary	-12195
▁substances	-12196
▁sufferable	-12197
▁suppressed	-12198
▁suspicious	-12199
▁threatened	-12200
▁tranquilly	-12201
▁ultimately	-12202
▁unintellig	-12203
▁unmolested	-12204
▁unrecorded	-12205
▁vigorously	-12206
▁whaleboats	-12207
▁widespread	-12208
▁wilderness	-12209
▁Accordingly	-12210
▁Christendom	-12211
▁Considering	-12212
▁Deuteronomy	-12213
▁Integrating	-12214
▁Integration	-12215
▁Leviathanic	-12216
▁Specksnyder	-12217
▁Weierstrass	-12218
▁activations	-12219
▁adventurous	-12220
▁alternating	-12221
▁arrangement	-12222
▁atmospheric	-12223
▁conceivable	-12224
▁constructed	-12225
▁contracting	-12226
▁denominated	-12227
▁discovering	-12228
▁distrustful	-12229
▁impatiently	-12230
▁impregnable	-12231
▁incessantly	-12232
▁indignation	-12233
▁instructive	-12234
▁intensified	-12235
▁interrupted	-12236
▁intolerably	-12237
▁legislative	-12238
▁leviathanic	-12239
▁limitations	-12240
▁merchantmen	-12241
▁neighboring	-12242
▁overbearing	-12243
▁permanently	-12244
▁permissible	-12245
▁pitchpoling	-12246
▁practicable	-12247
▁predictions	-12248
▁prematurely	-12249
▁presumption	-12250
▁prominently	-12251
▁proportions	-12252
▁reflections	-12253
▁represented	-12254
▁restriction	-12255
▁spontaneous	-12256
▁substantial	-12257
▁superficial	-12258
▁supposition	-12259
▁surrounding	-12260
▁threatening	-12261
▁transformed	-12262
▁transported	-12263
▁unalterable	-12264
▁unfortunate	-12265
▁Substituting	-12266
▁announcement	-12267
▁applications	-12268
▁comprehended	-12269
▁contemporary	-12270
▁contemptible	-12271
▁demonstrated	-12272
▁exclamations	-12273
▁intelligible	-12274
▁introduction	-12275
▁outstretched	-12276
▁overwhelming	-12277
▁peremptorily	-12278
▁profundities	-12279
▁recollection	-12280
▁relationship	-12281
▁respectfully	-12282
▁respectively	-12283
▁soliloquized	-12284
▁unctuousness	-12285
▁unobstructed	-12286
▁International	-12287
▁comprehension	-12288
▁contradictory	-12289
▁establishment	-12290
▁individuality	-12291
▁instinctively	-12292
▁justification	-12293
▁miscellaneous	-12294
▁predestinated	-12295
▁prescriptions	-12296
▁psychiatrists	-12297
▁remorselessly	-12298
▁significantly	-12299
▁spasmodically	-12300
▁subterraneous	-12301
▁supplementary	-12302
▁uncomfortable	-12303
▁unconquerable	-12304
▁unprecedented	-12305
▁classification	-12306
▁electronically	-12307
▁insufficiently	-12308
▁ostentatiously	-12309
▁systematically	-12310
▁interpretations	-12311
AV	-12312
BL	-12313
Le	-12314
.[2	-12315
.’”	-12316
17.	-12317
265	-12318
4.1	-12319
6),	-12320
7).	-12321
AGG	-12322
AND	-12323
ATE	-12324
AVO	-12325
Adv	-12326
Bad	-12327
CRE	-12328
Din	-12329
ENC	-12330
IGH	-12331
III	-12332
ILL	-12333
Imp	-12334
LIO	-12335
Men	-12336
NCH	-12337
NTA	-12338
NTS	-12339
ORY	-12340
ROD	-12341
UCT	-12342
UND	-12343
aky	-12344
bec	-12345
fro	-12346
ige	-12347
jee	-12348
lap	-12349
obe	-12350
oko	-12351
pen	-12352
pha	-12353
pin	-12354
sea	-12355
sir	-12356
tro	-12357
uce	-12358
ugn	-12359
ula	-12360
ulc	-12361
upe	-12362
www	-12363
zte	-12364
▁3,	-12365
▁5,	-12366
▁64	-12367
▁80	-12368
▁84	-12369
▁FO	-12370
▁Na	-12371
▁SP	-12372
▁ol	-12373
1265	-12374
:15]	-12375
:16]	-12376
:17]	-12377
:20]	-12378
:25]	-12379
:31]	-12380
CRED	-12381
Dost	-12382
Haul	-12383
Holl	-12384
IGHT	-12385
Ibid	-12386
John	-12387
Just	-12388
Like	-12389
Rope	-12390
Stop	-12391
Twas	-12392
Upon	-12393
adam	-12394
adle	-12395
airy	-12396
atte	-12397
atum	-12398
bert	-12399
8,	-12400
LD	-12401
SH	-12402
va	-12403
OBY	-12404
avy	-12405
leg	-12406
oin	-12407
rip	-12408
uil	-12409
▁Az	-12410
▁Id	-12411
▁oy	-12412
▁tu	-12413
:3].	-12414
bido	-12415
bino	-12416
both	-12417
boys	-12418
bred	-12419
burg	-12420
chas	-12421
cker	-12422
clam	-12423
copi	-12424
deep	-12425
does	-12426
eeze	-12427
embr	-12428
emic	-12429
enny	-12430
estr	-12431
halm	-12432
hill	-12433
hyme	-12434
ianc	-12435
ikin	-12436
inqu	-12437
isex	-12438
laci	-12439
lest	-12440
luyt	-12441
mill	-12442
mity	-12443
nert	-12444
nuts	-12445
oble	-12446
ocra	-12447
okov	-12448
olat	-12449
omor	-12450
ooke	-12451
osal	-12452
osen	-12453
osis	-12454
ouge	-12455
pain	-12456
pell	-12457
pits	-12458
pool	-12459
pril	-12460
prop	-12461
rank	-12462
rict	-12463
rily	-12464
riot	-12465
rive	-12466
roll	-12467
rone	-12468
said	-12469
salm	-12470
scra	-12471
shad	-12472
tale	-12473
trad	-12474
udic	-12475
uits	-12476
umbs	-12477
unct	-12478
uxur	-12479
wich	-12480
yarn	-12481
ythe	-12482
▁...	-12483
▁10.	-12484
▁12.	-12485
▁132	-12486
▁167	-12487
▁169	-12488
▁179	-12489
▁18.	-12490
▁187	-12491
▁202	-12492
▁24.	-12493
▁25.	-12494
▁26.	-12495
▁33.	-12496
▁35.	-12497
▁47.	-12498
▁52.	-12499
88	-12500
AD	-12501
nx	-12502
vo	-12503
TEG	-12504
cod	-12505
hag	-12506
mir	-12507
olu	-12508
rey	-12509
roy	-12510
sar	-12511
tts	-12512
▁du	-12513
▁gi	-12514
▁oo	-12515
Damn	-12516
comm	-12517
hynx	-12518
isis	-12519
llin	-12520
odes	-12521
plus	-12522
ppin	-12523
stay	-12524
unks	-12525
▁550	-12526
▁Aer	-12527
▁Ann	-12528
▁Ans	-12529
▁Ast	-12530
▁Bol	-12531
▁Der	-12532
▁Fee	-12533
▁Has	-12534
▁Hen	-12535
▁Hyp	-12536
▁Lav	-12537
▁Lee	-12538
▁Leo	-12539
▁Ley	-12540
▁Log	-12541
▁MAN	-12542
▁MEM	-12543
▁Nes	-12544
▁OCT	-12545
▁Opp	-12546
▁Pot	-12547
▁Pto	-12548
▁REP	-12549
▁Tig	-12550
▁Tom	-12551
▁Tra	-12552
▁Wit	-12553
▁ape	-12554
▁ben	-12555
▁bil	-12556
▁cig	-12557
▁dab	-12558
▁fid	-12559
▁hyd	-12560
▁jar	-12561
▁maw	-12562
▁mic	-12563
▁nut	-12564
▁ore	-12565
▁rat	-12566
▁ray	-12567
▁ric	-12568
▁rim	-12569
▁tur	-12570
▁vor	-12571
▁web	-12572
/1265	-12573
3.11,	-12574
AGGOO	-12575
Blast	-12576
NTROD	-12577
RACTS	-12578
Spout	-12579
TENTS	-12580
Three	-12581
While	-12582
acond	-12583
alive	-12584
aller	-12585
allet	-12586
amese	-12587
anket	-12588
anned	-12589
arter	-12590
asher	-12591
aurus	-12592
avory	-12593
azine	-12594
backs	-12595
being	-12596
chaic	-12597
cibly	-12598
civil	-12599
hn	-12600
ano	-12601
bug	-12602
dis	-12603
ean	-12604
eat	-12605
far	-12606
lid	-12607
mar	-12608
pat	-12609
ran	-12610
▁NE	-12611
▁Ph	-12612
▁hu	-12613
:26]	-12614
nthe	-12615
scha	-12616
umes	-12617
▁OLD	-12618
▁Put	-12619
▁buy	-12620
▁dan	-12621
▁ink	-12622
▁rag	-12623
▁syn	-12624
Shall	-12625
cribe	-12626
cript	-12627
ecess	-12628
elson	-12629
esell	-12630
essed	-12631
estim	-12632
exico	-12633
faced	-12634
feast	-12635
flies	-12636
gered	-12637
godly	-12638
halot	-12639
hasie	-12640
haust	-12641
human	-12642
iatry	-12643
ibbal	-12644
ibber	-12645
icism	-12646
iforn	-12647
ighed	-12648
igion	-12649
ilent	-12650
ilian	-12651
ilted	-12652
inque	-12653
ipper	-12654
ische	-12655
isers	-12656
isten	-12657
laden	-12658
lares	-12659
linic	-12660
longs	-12661
lowly	-12662
ludes	-12663
mbers	-12664
named	-12665
offic	-12666
ograp	-12667
olars	-12668
onged	-12669
ooves	-12670
ordid	-12671
oward	-12672
owned	-12673
plexy	-12674
plice	-12675
plish	-12676
poles	-12677
ports	-12678
queer	-12679
rador	-12680
rally	-12681
renad	-12682
rises	-12683
rophe	-12684
ropic	-12685
rusen	-12686
scill	-12687
short	-12688
tiest	-12689
uates	-12690
ulged	-12691
urate	-12692
urnal	-12693
utest	-12694
vable	-12695
wreck	-12696
ynert	-12697
▁1.1.	-12698
▁1909	-12699
Dr	-12700
MO	-12701
MP	-12702
—’	-12703
Any	-12704
enc	-12705
lot	-12706
owl	-12707
utt	-12708
zza	-12709
▁Wa	-12710
axon	-12711
gers	-12712
izer	-12713
link	-12714
mers	-12715
quid	-12716
toed	-12717
▁27.	-12718
▁Aha	-12719
▁IMP	-12720
▁Lac	-12721
▁elo	-12722
▁haz	-12723
▁hen	-12724
▁jig	-12725
▁rhe	-12726
▁rue	-12727
alent	-12728
anite	-12729
arken	-12730
iancy	-12731
iards	-12732
ifled	-12733
ricts	-12734
sthes	-12735
ythes	-12736
▁1920	-12737
▁Alps	-12738
▁Ange	-12739
▁Anne	-12740
▁Best	-12741
▁Bowd	-12742
▁Brah	-12743
▁Case	-12744
▁Chow	-12745
▁Croz	-12746
▁Diff	-12747
▁Dons	-12748
▁Each	-12749
▁Emir	-12750
▁Erie	-12751
▁Fair	-12752
▁Fraz	-12753
▁Hart	-12754
▁Hast	-12755
▁Haul	-12756
▁Helm	-12757
▁Jews	-12758
▁July	-12759
▁Loom	-12760
▁MOBY	-12761
▁Mast	-12762
▁Must	-12763
▁Note	-12764
▁Ohio	-12765
▁Pole	-12766
▁Seen	-12767
▁Snod	-12768
▁Tuil	-12769
▁WILL	-12770
▁aint	-12771
▁baff	-12772
▁beam	-12773
▁belo	-12774
▁bind	-12775
▁calf	-12776
▁carn	-12777
▁casc	-12778
▁clap	-12779
▁clue	-12780
▁crim	-12781
▁cubs	-12782
▁damn	-12783
▁deem	-12784
▁defy	-12785
▁demi	-12786
▁demo	-12787
▁dong	-12788
▁eddy	-12789
▁ejac	-12790
▁entr	-12791
▁epau	-12792
▁epic	-12793
▁epid	-12794
▁epis	-12795
▁erud	-12796
▁fero	-12797
▁fift	-12798
▁fiss	-12799
7,	-12800
NE	-12801
Lay	-12802
ago	-12803
ooh	-12804
▁48	-12805
comp	-12806
laws	-12807
name	-12808
need	-12809
thus	-12810
vial	-12811
wife	-12812
▁11.	-12813
▁Bib	-12814
▁Led	-12815
▁Rev	-12816
▁Ten	-12817
▁ash	-12818
▁asp	-12819
▁cot	-12820
▁hus	-12821
▁tap	-12822
Think	-12823
acled	-12824
aphys	-12825
blest	-12826
istak	-12827
laced	-12828
quent	-12829
ubbed	-12830
ulent	-12831
▁Blan	-12832
▁Lect	-12833
▁Main	-12834
▁clar	-12835
▁cott	-12836
▁feed	-12837
▁fork	-12838
▁gamy	-12839
▁glue	-12840
▁goat	-12841
▁greg	-12842
▁grie	-12843
▁haly	-12844
▁harp	-12845
▁heir	-12846
▁hoky	-12847
▁hoot	-12848
▁hous	-12849
▁hues	-12850
▁hush	-12851
▁hymn	-12852
▁icic	-12853
▁joky	-12854
▁junk	-12855
▁laun	-12856
▁lazy	-12857
▁lear	-12858
▁lees	-12859
▁loos	-12860
▁mart	-12861
▁merc	-12862
▁mole	-12863
▁morn	-12864
▁moth	-12865
▁mout	-12866
▁mule	-12867
▁noct	-12868
▁omin	-12869
▁oxen	-12870
▁pays	-12871
▁perd	-12872
▁pert	-12873
▁pout	-12874
▁rags	-12875
▁ramb	-12876
▁rapt	-12877
▁ride	-12878
▁rigg	-12879
▁robe	-12880
▁scru	-12881
▁sele	-12882
▁sket	-12883
▁skyl	-12884
▁sped	-12885
▁spur	-12886
▁stag	-12887
▁stem	-12888
▁suic	-12889
▁suns	-12890
▁susp	-12891
▁thir	-12892
▁tows	-12893
▁trif	-12894
▁unde	-12895
▁unlo	-12896
▁unri	-12897
▁unth	-12898
▁unto	-12899
PT	-12900
ogo	-12901
sav	-12902
sim	-12903
sub	-12904
tar	-12905
uba	-12906
▁50	-12907
acit	-12908
acre	-12909
free	-12910
pine	-12911
than	-12912
▁Cac	-12913
▁ate	-12914
Aside	-12915
agree	-12916
alcul	-12917
atisf	-12918
ooled	-12919
othed	-12920
rical	-12921
▁Form	-12922
▁Gulf	-12923
▁arre	-12924
▁caul	-12925
▁dint	-12926
▁mund	-12927
▁rede	-12928
▁shop	-12929
▁sigh	-12930
▁site	-12931
▁util	-12932
▁vers	-12933
▁vort	-12934
▁wail	-12935
▁weld	-12936
▁whet	-12937
▁whim	-12938
▁worm	-12939
/12655	-12940
/17323	-12941
/17326	-12942
00,000	-12943
Dinner	-12944
During	-12945
Gesell	-12946
Ginger	-12947
Halloa	-12948
Holloa	-12949
TRACTS	-12950
Thomas	-12951
Trench	-12952
UCTION	-12953
abbing	-12954
achuse	-12955
ackery	-12956
ademic	-12957
adings	-12958
aloons	-12959
altern	-12960
aments	-12961
antial	-12962
arched	-12963
arches	-12964
arding	-12965
assock	-12966
atible	-12967
atical	-12968
aulted	-12969
binder	-12970
copius	-12971
cratic	-12972
cribed	-12973
driver	-12974
ecause	-12975
egging	-12976
enesis	-12977
entuck	-12978
estone	-12979
eviate	-12980
except	-12981
gainst	-12982
hanged	-12983
haraoh	-12984
hazard	-12985
header	-12986
hinged	-12987
histor	-12988
houses	-12989
ibbald	-12990
ibrary	-12991
ichael	-12992
ichard	-12993
icians	-12994
igable	-12995
ilated	-12996
inally	-12997
inence	-12998
inople	-12999
AS	-13000
)).	-13001
800	-13002
arm	-13003
occ	-13004
ops	-13005
▁El	-13006
amph	-13007
apor	-13008
back	-13009
erus	-13010
etts	-13011
fted	-13012
idav	-13013
maid	-13014
pire	-13015
tack	-13016
▁17.	-13017
▁dew	-13018
▁fry	-13019
▁hop	-13020
▁pau	-13021
▁pep	-13022
▁ton	-13023
Every	-13024
eight	-13025
hasis	-13026
ilded	-13027
month	-13028
ordin	-13029
ottle	-13030
pence	-13031
would	-13032
▁Bull	-13033
▁Magn	-13034
▁Poll	-13035
▁arts	-13036
▁enqu	-13037
▁gore	-13038
▁hare	-13039
▁hiss	-13040
▁hogs	-13041
▁hove	-13042
▁poke	-13043
▁twos	-13044
▁unsh	-13045
cester	-13046
course	-13047
idavit	-13048
ingled	-13049
inting	-13050
iology	-13051
isance	-13052
isbury	-13053
itancy	-13054
jacket	-13055
lacier	-13056
leader	-13057
legged	-13058
lendar	-13059
letter	-13060
libido	-13061
lihood	-13062
llable	-13063
matics	-13064
matter	-13065
mentia	-13066
mighty	-13067
ocracy	-13068
olence	-13069
ometer	-13070
ompany	-13071
omprom	-13072
oology	-13073
opatra	-13074
ortion	-13075
ossary	-13076
ossils	-13077
otting	-13078
ournal	-13079
ovable	-13080
passes	-13081
pation	-13082
pelled	-13083
perien	-13084
poleon	-13085
preser	-13086
profit	-13087
racing	-13088
reated	-13089
ricane	-13090
ridged	-13091
schaft	-13092
spaper	-13093
square	-13094
sticks	-13095
struck	-13096
taking	-13097
tische	-13098
uation	-13099
Go	-13100
▁:	-13101
try	-13102
vol	-13103
▁nu	-13104
Your	-13105
cary	-13106
ewed	-13107
eyed	-13108
gras	-13109
oons	-13110
text	-13111
▁Res	-13112
▁Run	-13113
brace	-13114
gnant	-13115
riety	-13116
rived	-13117
▁Born	-13118
▁Cath	-13119
▁Sail	-13120
▁Turn	-13121
▁club	-13122
▁daft	-13123
▁data	-13124
▁lets	-13125
▁remn	-13126
▁skil	-13127
▁wade	-13128
father	-13129
idated	-13130
uctive	-13131
ulphur	-13132
umatic	-13133
umbent	-13134
unting	-13135
upella	-13136
urrent	-13137
vision	-13138
waters	-13139
winter	-13140
within	-13141
worthy	-13142
yrinth	-13143
▁1839.	-13144
▁1882,	-13145
▁Admir	-13146
▁April	-13147
▁Baron	-13148
▁Blood	-13149
▁Break	-13150
▁Brill	-13151
▁Burke	-13152
▁Canal	-13153
▁Could	-13154
▁Deity	-13155
▁Essex	-13156
▁Event	-13157
▁Exper	-13158
▁FOLIO	-13159
▁Fejee	-13160
▁Frank	-13161
▁Goney	-13162
▁Grace	-13163
▁Hamps	-13164
▁Henry	-13165
▁Honor	-13166
▁Human	-13167
▁Illin	-13168
▁Index	-13169
▁Isles	-13170
▁Jenny	-13171
▁Jonas	-13172
▁Massa	-13173
▁Merry	-13174
▁Nancy	-13175
▁Parli	-13176
▁Peace	-13177
▁Plato	-13178
▁Rokov	-13179
▁Seems	-13180
▁Senor	-13181
▁Shame	-13182
▁Shark	-13183
▁Shore	-13184
▁Siber	-13185
▁Slave	-13186
▁Small	-13187
▁Speak	-13188
▁Steed	-13189
▁Stone	-13190
▁TABLE	-13191
▁Teeth	-13192
▁Totem	-13193
▁Until	-13194
▁Water	-13195
▁World	-13196
▁acres	-13197
▁adieu	-13198
▁aimed	-13199
▁QU	-13200
▁Um	-13201
Line	-13202
Sail	-13203
bens	-13204
coct	-13205
iors	-13206
noid	-13207
oped	-13208
poky	-13209
poss	-13210
rics	-13211
wear	-13212
weed	-13213
▁Rib	-13214
▁Top	-13215
▁apo	-13216
▁lob	-13217
abash	-13218
angle	-13219
ients	-13220
intry	-13221
orial	-13222
orsch	-13223
thalm	-13224
▁,...	-13225
▁Beth	-13226
▁Hell	-13227
▁Ross	-13228
▁akin	-13229
▁bark	-13230
▁beak	-13231
▁eber	-13232
▁glow	-13233
▁pint	-13234
▁prou	-13235
▁rank	-13236
▁tens	-13237
▁unaw	-13238
▁vale	-13239
▁vint	-13240
Rather	-13241
Strike	-13242
ellows	-13243
ernity	-13244
ipient	-13245
rather	-13246
ungary	-13247
▁Dives	-13248
▁Eight	-13249
▁Study	-13250
▁alert	-13251
▁ambit	-13252
▁ample	-13253
▁anger	-13254
▁appal	-13255
▁argue	-13256
▁arrog	-13257
▁awoke	-13258
▁badge	-13259
▁bands	-13260
▁bayon	-13261
▁begat	-13262
▁bells	-13263
▁bened	-13264
▁berry	-13265
▁besee	-13266
▁beset	-13267
▁bisex	-13268
▁bison	-13269
▁bliss	-13270
▁bonds	-13271
▁bored	-13272
▁brass	-13273
▁brawn	-13274
▁brigs	-13275
▁brook	-13276
▁brows	-13277
▁bulky	-13278
▁cabal	-13279
▁calam	-13280
▁cares	-13281
▁cargo	-13282
▁casts	-13283
▁cells	-13284
▁chasm	-13285
▁clams	-13286
▁cleat	-13287
▁coats	-13288
▁conge	-13289
▁crabs	-13290
▁crane	-13291
▁crick	-13292
▁crisp	-13293
▁cubic	-13294
▁dairy	-13295
▁dandy	-13296
▁dares	-13297
▁dates	-13298
▁decan	-13299
xes	-13300
▁VO	-13301
arms	-13302
fire	-13303
nigh	-13304
▁21.	-13305
▁Alf	-13306
▁Few	-13307
▁Fol	-13308
▁PIP	-13309
▁Rig	-13310
▁fru	-13311
▁pug	-13312
▁reb	-13313
▁tat	-13314
These	-13315
arned	-13316
dream	-13317
neath	-13318
ospel	-13319
urich	-13320
usked	-13321
▁Aunt	-13322
▁Capt	-13323
▁Circ	-13324
▁Vers	-13325
▁alow	-13326
▁assu	-13327
▁curb	-13328
▁fren	-13329
▁joes	-13330
▁shel	-13331
▁tact	-13332
action	-13333
rupted	-13334
tables	-13335
umpled	-13336
▁Gomor	-13337
▁Physi	-13338
▁acted	-13339
▁deals	-13340
▁deeds	-13341
▁demig	-13342
▁drama	-13343
▁drove	-13344
▁drunk	-13345
▁durst	-13346
▁dusty	-13347
▁eaten	-13348
▁ebony	-13349
▁edges	-13350
▁elder	-13351
▁emper	-13352
▁encro	-13353
▁equin	-13354
▁excav	-13355
▁faire	-13356
▁famed	-13357
▁felic	-13358
▁femin	-13359
▁fianc	-13360
▁filed	-13361
▁flint	-13362
▁folks	-13363
▁fools	-13364
▁forks	-13365
▁gales	-13366
▁gifts	-13367
▁glare	-13368
▁glued	-13369
▁godly	-13370
▁grain	-13371
▁graze	-13372
▁grego	-13373
▁grope	-13374
▁grove	-13375
▁guise	-13376
▁hairy	-13377
▁halls	-13378
▁handy	-13379
▁hoofs	-13380
▁hosts	-13381
▁hunch	-13382
▁hunks	-13383
▁immac	-13384
▁imple	-13385
▁inacc	-13386
▁inert	-13387
▁insin	-13388
▁intim	-13389
▁ising	-13390
▁jesty	-13391
▁joist	-13392
▁juicy	-13393
▁kidna	-13394
▁knots	-13395
▁lapse	-13396
▁leads	-13397
▁legit	-13398
▁likes	-13399
One	-13400
oil	-13401
shr	-13402
▁Ep	-13403
agne	-13404
▁Icy	-13405
▁irr	-13406
eking	-13407
▁Pots	-13408
▁Rock	-13409
▁gash	-13410
▁migr	-13411
ervice	-13412
integr	-13413
▁Sleep	-13414
▁Words	-13415
▁broom	-13416
▁calms	-13417
▁flask	-13418
▁grapp	-13419
▁lakes	-13420
▁liver	-13421
▁lodge	-13422
▁logic	-13423
▁lords	-13424
▁loved	-13425
▁lucid	-13426
▁ludic	-13427
▁luxur	-13428
▁males	-13429
▁manip	-13430
▁meets	-13431
▁metal	-13432
▁minus	-13433
▁miser	-13434
▁misty	-13435
▁mouse	-13436
▁musky	-13437
▁naval	-13438
▁nooks	-13439
▁noseg	-13440
▁notes	-13441
▁notew	-13442
▁novel	-13443
▁nurse	-13444
▁olive	-13445
▁omnis	-13446
▁opine	-13447
▁overs	-13448
▁palmy	-13449
▁paths	-13450
▁paved	-13451
▁peaks	-13452
▁pearl	-13453
▁pecks	-13454
▁penal	-13455
▁plent	-13456
▁polar	-13457
▁prize	-13458
▁prows	-13459
▁psalm	-13460
▁pulse	-13461
▁quies	-13462
▁reced	-13463
▁rests	-13464
▁ridge	-13465
▁risen	-13466
▁roast	-13467
▁rover	-13468
▁ruddy	-13469
▁rusty	-13470
▁satin	-13471
▁satir	-13472
▁savor	-13473
▁scare	-13474
▁shaft	-13475
▁shalt	-13476
▁shank	-13477
▁shell	-13478
▁shift	-13479
▁shine	-13480
▁shirr	-13481
▁shone	-13482
▁slips	-13483
▁slugg	-13484
▁smelt	-13485
▁smoky	-13486
▁sooty	-13487
▁spake	-13488
▁spans	-13489
▁spind	-13490
▁spire	-13491
▁squid	-13492
▁stare	-13493
▁stash	-13494
▁sting	-13495
▁stool	-13496
▁straw	-13497
▁subsc	-13498
▁sulky	-13499
▁swamp	-13500
▁sworn	-13501
▁taboo	-13502
▁tacit	-13503
▁tents	-13504
▁tiles	-13505
▁torso	-13506
▁total	-13507
▁toxic	-13508
▁trade	-13509
▁trail	-13510
▁trial	-13511
▁truck	-13512
▁twist	-13513
▁unass	-13514
▁unbid	-13515
▁unhes	-13516
▁uninj	-13517
▁unlim	-13518
▁unobs	-13519
▁untra	-13520
▁vault	-13521
▁vices	-13522
▁vowed	-13523
▁wages	-13524
▁wards	-13525
▁weedy	-13526
▁whims	-13527
▁width	-13528
▁wiped	-13529
▁wires	-13530
▁worst	-13531
▁wraps	-13532
Because	-13533
However	-13534
ackluyt	-13535
adamite	-13536
angered	-13537
anguage	-13538
asingly	-13539
astrous	-13540
atingly	-13541
bearded	-13542
bearers	-13543
because	-13544
cending	-13545
cheeked	-13546
ciences	-13547
covered	-13548
ections	-13549
eminacy	-13550
ensibly	-13551
fishery	-13552
grounds	-13553
handled	-13554
hearing	-13555
humored	-13556
inarily	-13557
inquish	-13558
ipating	-13559
isphere	-13560
itching	-13561
itively	-13562
ivorous	-13563
killing	-13564
lacency	-13565
masters	-13566
mediate	-13567
mission	-13568
natured	-13569
neither	-13570
nthesis	-13571
olesome	-13572
omeness	-13573
ountain	-13574
ouraged	-13575
pudding	-13576
reating	-13577
respass	-13578
rovided	-13579
sterdam	-13580
through	-13581
uffling	-13582
ugnance	-13583
urities	-13584
vessels	-13585
watches	-13586
wearied	-13587
whether	-13588
▁7.2.3,	-13589
▁Aerzte	-13590
▁Albino	-13591
▁Alfred	-13592
▁Anyone	-13593
▁Author	-13594
▁Azores	-13595
▁Baltic	-13596
▁Bashee	-13597
▁Boomer	-13598
▁Bottom	-13599
▁Cannib	-13600
▁Cauchy	-13601
▁Cinque	-13602
▁Clinic	-13603
▁Common	-13604
▁DAGGOO	-13605
▁Daniel	-13606
▁Danish	-13607
▁FRENCH	-13608
▁Forsch	-13609
▁Frazer	-13610
▁Goethe	-13611
▁Greeks	-13612
▁Hamlet	-13613
▁Having	-13614
▁Histor	-13615
▁INTROD	-13616
▁Immedi	-13617
▁Isolat	-13618
▁Letter	-13619
▁Leyden	-13620
▁Lionel	-13621
▁Listen	-13622
▁Little	-13623
▁MEMORY	-13624
▁Malays	-13625
▁Mexico	-13626
▁Nearly	-13627
▁Nelson	-13628
▁OCTAVO	-13629
▁Origin	-13630
▁Others	-13631
▁Philip	-13632
▁Portug	-13633
▁Prince	-13634
▁Rather	-13635
▁Romans	-13636
▁Romish	-13637
▁SACRED	-13638
▁Scotch	-13639
▁Sexual	-13640
▁Slowly	-13641
▁Sperma	-13642
▁Sphynx	-13643
▁Steady	-13644
▁Syrian	-13645
▁System	-13646
▁Taking	-13647
▁Trades	-13648
▁Unlike	-13649
▁Whaler	-13650
▁Whence	-13651
▁abated	-13652
▁absorb	-13653
▁abuses	-13654
▁adding	-13655
▁admits	-13656
▁ailing	-13657
▁annual	-13658
▁antiqu	-13659
▁appare	-13660
▁assign	-13661
▁attest	-13662
▁august	-13663
▁autumn	-13664
▁bamboo	-13665
▁barren	-13666
▁beards	-13667
▁beaten	-13668
▁belike	-13669
▁belted	-13670
▁bended	-13671
▁bottle	-13672
▁boughs	-13673
▁breeds	-13674
▁busily	-13675
▁candor	-13676
▁canted	-13677
▁casket	-13678
▁castor	-13679
▁catast	-13680
▁cathed	-13681
▁ceases	-13682
▁chests	-13683
▁choked	-13684
▁chosen	-13685
▁circus	-13686
▁cities	-13687
▁cleans	-13688
▁climax	-13689
▁clinch	-13690
▁clinic	-13691
▁closet	-13692
▁cocoan	-13693
▁colleg	-13694
▁combat	-13695
▁comfor	-13696
▁compil	-13697
▁condes	-13698
▁constr	-13699
▁convey	-13700
▁cotton	-13701
▁cranes	-13702
▁crazed	-13703
▁crisis	-13704
▁crying	-13705
▁danced	-13706
▁deceit	-13707
▁deduct	-13708
▁deline	-13709
▁device	-13710
▁dining	-13711
▁dipped	-13712
▁direst	-13713
▁discol	-13714
▁disobe	-13715
▁dissol	-13716
▁domine	-13717
▁doomed	-13718
▁dramat	-13719
▁drives	-13720
▁easier	-13721
▁eddies	-13722
▁eluded	-13723
▁emblaz	-13724
▁emerge	-13725
▁emphas	-13726
▁encirc	-13727
▁enmity	-13728
▁essent	-13729
▁evapor	-13730
▁evince	-13731
▁execut	-13732
▁exempl	-13733
▁exerts	-13734
▁extant	-13735
▁fabric	-13736
▁fading	-13737
▁fairyt	-13738
▁feared	-13739
▁feeble	-13740
▁fleets	-13741
▁forgot	-13742
▁fossil	-13743
▁freshe	-13744
▁frigid	-13745
▁fronts	-13746
▁gaping	-13747
▁genius	-13748
▁giants	-13749
▁gibber	-13750
▁gifted	-13751
▁gilded	-13752
▁girdle	-13753
▁glades	-13754
▁glossy	-13755
▁grazed	-13756
▁grimly	-13757
▁grotes	-13758
▁grudge	-13759
▁hamper	-13760
▁haunts	-13761
▁hazard	-13762
▁helmet	-13763
▁herein	-13764
▁hermit	-13765
▁hinder	-13766
▁hooped	-13767
▁hugest	-13768
▁humbug	-13769
▁hummed	-13770
▁immeas	-13771
▁imprec	-13772
▁impuls	-13773
▁inborn	-13774
▁income	-13775
▁inculc	-13776
▁infilt	-13777
▁inhale	-13778
▁injury	-13779
▁innate	-13780
▁interm	-13781
▁jammed	-13782
▁jerked	-13783
▁jewell	-13784
▁joists	-13785
▁joyful	-13786
▁keeled	-13787
▁kelson	-13788
▁knight	-13789
▁lasted	-13790
▁laughs	-13791
▁learnt	-13792
▁levels	-13793
▁livers	-13794
▁lovers	-13795
▁lumber	-13796
▁lunacy	-13797
▁malady	-13798
▁mallet	-13799
▁marsha	-13800
▁mature	-13801
▁mayhap	-13802
▁meagre	-13803
▁meddle	-13804
▁merged	-13805
▁micros	-13806
▁miscon	-13807
▁mishap	-13808
▁mosses	-13809
▁muscle	-13810
▁mutiny	-13811
▁mutter	-13812
▁obstin	-13813
▁orange	-13814
▁oscill	-13815
▁outset	-13816
▁packet	-13817
▁paddle	-13818
▁pagoda	-13819
▁palace	-13820
▁pantry	-13821
▁pardon	-13822
▁parson	-13823
▁passes	-13824
▁patron	-13825
▁peaked	-13826
▁perish	-13827
▁perpet	-13828
▁phrens	-13829
▁pledge	-13830
▁plough	-13831
▁plying	-13832
▁poised	-13833
▁prints	-13834
▁proven	-13835
▁provin	-13836
▁prying	-13837
▁purest	-13838
▁purity	-13839
▁quaint	-13840
▁rarely	-13841
▁reaped	-13842
▁recent	-13843
▁recoil	-13844
▁reefed	-13845
▁refill	-13846
▁reigns	-13847
▁reiter	-13848
▁repair	-13849
▁repast	-13850
▁repell	-13851
▁requis	-13852
▁resent	-13853
▁respir	-13854
▁rested	-13855
▁richer	-13856
▁riding	-13857
▁rigger	-13858
▁rivals	-13859
▁rivers	-13860
▁robbed	-13861
▁rounds	-13862
▁roused	-13863
▁royals	-13864
▁rubbed	-13865
▁sanity	-13866
▁scared	-13867
▁senior	-13868
▁sensit	-13869
▁sentry	-13870
▁sequel	-13871
▁shabby	-13872
▁shaded	-13873
▁shares	-13874
▁shears	-13875
▁shovel	-13876
▁shrink	-13877
▁silken	-13878
▁sinews	-13879
▁sinful	-13880
▁skewer	-13881
▁sledge	-13882
▁slides	-13883
▁snatch	-13884
▁soaked	-13885
▁solace	-13886
▁sordid	-13887
▁spikes	-13888
▁sporty	-13889
▁starry	-13890
▁statue	-13891
▁staves	-13892
▁stocks	-13893
▁stolen	-13894
▁stormy	-13895
▁stowed	-13896
▁strait	-13897
▁stript	-13898
▁succor	-13899
▁sultry	-13900
▁superb	-13901
▁tables	-13902
▁temple	-13903
▁termed	-13904
▁territ	-13905
▁thirst	-13906
▁threes	-13907
▁toilet	-13908
▁tracts	-13909
▁trades	-13910
▁traits	-13911
▁tricks	-13912
▁trucks	-13913
▁truest	-13914
▁tucked	-13915
▁tumble	-13916
▁unatte	-13917
▁undisc	-13918
▁unduly	-13919
▁unfair	-13920
▁urgent	-13921
▁urging	-13922
▁vacill	-13923
▁vaults	-13924
▁verbal	-13925
▁verily	-13926
▁wallow	-13927
▁warmth	-13928
▁warned	-13929
▁warped	-13930
▁wedged	-13931
▁widows	-13932
▁winged	-13933
▁wintry	-13934
▁withal	-13935
▁wrench	-13936
▁yawned	-13937
▁zodiac	-13938
,000,000	-13939
Supplied	-13940
arnished	-13941
byterian	-13942
enerally	-13943
ensities	-13944
iciously	-13945
inkingly	-13946
iscovery	-13947
ishments	-13948
ittingly	-13949
ivalence	-13950
lictions	-13951
olicited	-13952
ompanied	-13953
osterous	-13954
pleasure	-13955
ractical	-13956
renadier	-13957
ribution	-13958
secutive	-13959
sickness	-13960
straight	-13961
stranded	-13962
ublished	-13963
ulsively	-13964
unctions	-13965
versions	-13966
▁5.2.14,	-13967
▁African	-13968
▁Assumed	-13969
▁Austral	-13970
▁Bethink	-13971
▁Blanket	-13972
▁British	-13973
▁Buffalo	-13974
▁Central	-13975
▁Charley	-13976
▁Chowder	-13977
▁Colnett	-13978
▁Cutting	-13979
▁Defined	-13980
▁Grampus	-13981
▁Hearing	-13982
▁Himmale	-13983
▁Holding	-13984
▁Hungary	-13985
▁Journal	-13986
▁Justice	-13987
▁Lavater	-13988
▁Library	-13989
▁Looking	-13990
▁Meynert	-13991
▁Michael	-13992
▁Nervous	-13993
▁Passion	-13994
▁Pharaoh	-13995
▁Philist	-13996
▁Pollard	-13997
▁Polynes	-13998
▁Pupella	-13999
▁Purchas	-14000
▁Quakers	-14001
▁Running	-14002
▁SPANISH	-14003
▁Seizing	-14004
▁Siamese	-14005
▁Squeeze	-14006
▁Thereby	-14007
▁Trinity	-14008
▁Webster	-14009
▁Whoever	-14010
▁Windsor	-14011
▁Yankees	-14012
▁abreast	-14013
▁acquire	-14014
▁affords	-14015
▁allured	-14016
▁amongst	-14017
▁amounts	-14018
▁anacond	-14019
▁analogy	-14020
▁answers	-14021
▁appeals	-14022
▁archaic	-14023
▁athirst	-14024
▁avenues	-14025
▁averted	-14026
▁beaches	-14027
▁bearded	-14028
▁beloved	-14029
▁biggest	-14030
▁bigness	-14031
▁blocked	-14032
▁braided	-14033
▁broiled	-14034
▁burglar	-14035
▁buttons	-14036
▁callest	-14037
▁capital	-14038
▁caution	-14039
▁chamber	-14040
▁changes	-14041
▁charger	-14042
▁charges	-14043
▁charmed	-14044
▁choking	-14045
▁churned	-14046
▁circuit	-14047
▁college	-14048
▁columns	-14049
▁combing	-14050
▁concert	-14051
▁concoct	-14052
▁consort	-14053
▁consume	-14054
▁contour	-14055
▁coopers	-14056
▁cordage	-14057
▁cottage	-14058
▁coupled	-14059
▁crimson	-14060
▁cripple	-14061
▁critics	-14062
▁crowned	-14063
▁damaged	-14064
▁decline	-14065
▁decreed	-14066
▁deified	-14067
▁denying	-14068
▁deserve	-14069
▁diagnos	-14070
▁diamond	-14071
▁dipping	-14072
▁dispute	-14073
▁dodging	-14074
▁dreamed	-14075
▁dreamer	-14076
▁drifted	-14077
▁drought	-14078
▁drunken	-14079
▁easiest	-14080
▁effaced	-14081
▁elbowed	-14082
▁employs	-14083
▁enjoyed	-14084
▁ethical	-14085
▁evident	-14086
▁evolved	-14087
▁exhaled	-14088
▁expanse	-14089
▁exposes	-14090
▁extinct	-14091
▁extingu	-14092
▁failure	-14093
▁fanatic	-14094
▁fasting	-14095
▁favored	-14096
▁festoon	-14097
▁figured	-14098
▁fishers	-14099
▁flashed	-14100
▁flights	-14101
▁flooded	-14102
▁flowery	-14103
▁foaming	-14104
▁forcing	-14105
▁foresee	-14106
▁forging	-14107
▁fossils	-14108
▁fulfill	-14109
▁furnace	-14110
▁gallery	-14111
▁gallied	-14112
▁gardens	-14113
▁genuine	-14114
▁ghostly	-14115
▁girdled	-14116
▁goblets	-14117
▁gradual	-14118
▁granite	-14119
▁grating	-14120
▁groaned	-14121
▁guessed	-14122
▁halting	-14123
▁handing	-14124
▁hapless	-14125
▁hearken	-14126
▁highway	-14127
▁hinting	-14128
▁holiday	-14129
▁hollows	-14130
▁husband	-14131
▁ignoble	-14132
▁impetus	-14133
▁imposed	-14134
▁impress	-14135
▁imputed	-14136
▁inboard	-14137
▁inmates	-14138
▁insepar	-14139
▁inspect	-14140
▁intends	-14141
▁intoler	-14142
▁invoked	-14143
▁inwards	-14144
▁justice	-14145
▁justify	-14146
▁keenest	-14147
▁latency	-14148
▁lawyers	-14149
▁legally	-14150
▁legends	-14151
▁leisure	-14152
▁lengths	-14153
▁liberal	-14154
▁limping	-14155
▁listens	-14156
▁loading	-14157
▁longing	-14158
▁lookest	-14159
▁machine	-14160
▁marbles	-14161
▁marines	-14162
▁marking	-14163
▁marling	-14164
▁marshal	-14165
▁masoned	-14166
▁meadows	-14167
▁medulla	-14168
▁mending	-14169
▁mincing	-14170
▁misanth	-14171
▁mockery	-14172
▁monarch	-14173
▁monopol	-14174
▁mundane	-14175
▁natives	-14176
▁nearing	-14177
▁noblest	-14178
▁nursery	-14179
▁odorous	-14180
▁ominous	-14181
▁origins	-14182
▁oysters	-14183
▁paddled	-14184
▁panting	-14185
▁papered	-14186
▁pedagog	-14187
▁perches	-14188
▁periods	-14189
▁pitiful	-14190
▁planets	-14191
▁playful	-14192
▁plucked	-14193
▁pouring	-14194
▁praying	-14195
▁premium	-14196
▁primary	-14197
▁prodigy	-14198
▁progeny	-14199
▁protest	-14200
▁prouder	-14201
▁proudly	-14202
▁punctil	-14203
▁puzzled	-14204
▁rallied	-14205
▁rampart	-14206
▁reaches	-14207
▁recuper	-14208
▁reduced	-14209
▁referee	-14210
▁remembr	-14211
▁renders	-14212
▁reports	-14213
▁resides	-14214
▁resolve	-14215
▁reverie	-14216
▁revived	-14217
▁riggers	-14218
▁riotous	-14219
▁routine	-14220
▁scatter	-14221
▁scraped	-14222
▁scrutin	-14223
▁scythes	-14224
▁seaport	-14225
▁secrecy	-14226
▁serving	-14227
▁seventh	-14228
▁sheeted	-14229
▁showers	-14230
▁shunned	-14231
▁signing	-14232
▁slappin	-14233
▁slaught	-14234
▁sloping	-14235
▁smoothe	-14236
▁solving	-14237
▁soothed	-14238
▁stained	-14239
▁steamer	-14240
▁stimuli	-14241
▁storied	-14242
▁stoutly	-14243
▁studded	-14244
▁studied	-14245
▁subtile	-14246
▁summary	-14247
▁surging	-14248
▁systems	-14249
▁tanning	-14250
▁tapping	-14251
▁teacher	-14252
▁teaches	-14253
▁tending	-14254
▁terrify	-14255
▁tickled	-14256
▁tightly	-14257
▁tongues	-14258
▁tranced	-14259
▁travels	-14260
▁tribute	-14261
▁tropics	-14262
▁uncivil	-14263
▁undergo	-14264
▁unequal	-14265
▁ungodly	-14266
▁vacancy	-14267
▁verdant	-14268
▁vesture	-14269
▁viewing	-14270
▁villain	-14271
▁voyager	-14272
▁wantest	-14273
▁wasting	-14274
▁weeping	-14275
▁weighed	-14276
▁weighty	-14277
▁whelmed	-14278
▁worsted	-14279
▁wouldst	-14280
▁yawning	-14281
▁yelling	-14282
Goldsmith	-14283
Nantucket	-14284
Reclining	-14285
Shipmates	-14286
abilities	-14287
achusetts	-14288
agreeable	-14289
alculable	-14290
cientific	-14291
enetrable	-14292
pervading	-14293
something	-14294
▁Absolute	-14295
▁Antilles	-14296
▁Bowditch	-14297
▁CONTENTS	-14298
▁Cachalot	-14299
▁Californ	-14300
▁Catholic	-14301
▁Cetacean	-14302
▁Congress	-14303
▁Crozetts	-14304
▁Detailed	-14305
▁Eternity	-14306
▁Formally	-14307
▁Glossary	-14308
▁Gomorrah	-14309
▁Highland	-14310
▁Hysterie	-14311
▁Illinois	-14312
▁Judgment	-14313
▁Labrador	-14314
▁Merchant	-14315
▁Mounttop	-14316
▁Napoleon	-14317
▁Paradise	-14318
▁Peruvian	-14319
▁Probably	-14320
▁Religion	-14321
▁Republic	-14322
▁Rokovoko	-14323
▁Secondly	-14324
▁Snodhead	-14325
▁Spaniard	-14326
▁Steering	-14327
▁Tahitian	-14328
▁Thinking	-14329
▁Whatever	-14330
▁abhorred	-14331
▁abridged	-14332
▁academic	-14333
▁actively	-14334
▁actuated	-14335
▁allowing	-14336
▁alluding	-14337
▁altitude	-14338
▁appalled	-14339
▁aromatic	-14340
▁arrested	-14341
▁attained	-14342
▁audacity	-14343
▁audience	-14344
▁averages	-14345
▁backwood	-14346
▁bandaged	-14347
▁befallen	-14348
▁befriend	-14349
▁behooves	-14350
▁bitterly	-14351
▁bleached	-14352
▁bleeding	-14353
▁boneless	-14354
▁bowlines	-14355
▁brighter	-14356
▁brimming	-14357
▁buckskin	-14358
▁butchers	-14359
▁calabash	-14360
▁calendar	-14361
▁calmness	-14362
▁capsized	-14363
▁castaway	-14364
▁casualty	-14365
▁cautious	-14366
▁celerity	-14367
▁chaplain	-14368
▁cheating	-14369
▁chopping	-14370
▁chowders	-14371
▁circling	-14372
▁clapping	-14373
▁clinched	-14374
▁clothing	-14375
▁clutched	-14376
▁cobbling	-14377
▁compiled	-14378
▁complied	-14379
▁concrete	-14380
▁confined	-14381
▁confound	-14382
▁corroded	-14383
▁creaking	-14384
▁crippled	-14385
▁crowning	-14386
▁crunched	-14387
▁daughter	-14388
▁dazzling	-14389
▁decently	-14390
▁deciding	-14391
▁declares	-14392
▁deformed	-14393
▁delivery	-14394
▁dementia	-14395
▁demoniac	-14396
▁deserved	-14397
▁despised	-14398
▁diameter	-14399
▁diffused	-14400
▁diminish	-14401
▁disabled	-14402
▁disguise	-14403
▁distress	-14404
▁district	-14405
▁diverged	-14406
▁diverted	-14407
▁divulged	-14408
▁dolphins	-14409
▁dominion	-14410
▁draughts	-14411
▁drenched	-14412
▁drifting	-14413
▁drowning	-14414
▁dwelling	-14415
▁embarked	-14416
▁emphasis	-14417
▁enrolled	-14418
▁ensuring	-14419
▁epaulets	-14420
▁epidemic	-14421
▁esteemed	-14422
▁estimate	-14423
▁eternity	-14424
▁evermore	-14425
▁exciting	-14426
▁expiring	-14427
▁exposing	-14428
▁extermin	-14429
▁exulting	-14430
▁facility	-14431
▁families	-14432
▁farthing	-14433
▁feathers	-14434
▁firmness	-14435
▁flexible	-14436
▁forcibly	-14437
▁forenoon	-14438
▁formally	-14439
▁formerly	-14440
▁fortunes	-14441
▁fumbling	-14442
▁furlongs	-14443
▁gladness	-14444
▁gloomily	-14445
▁grateful	-14446
▁grizzled	-14447
▁grounded	-14448
▁gurgling	-14449
▁halyards	-14450
▁handsome	-14451
▁helmeted	-14452
▁hesitate	-14453
▁horribly	-14454
▁horseman	-14455
▁housings	-14456
▁identify	-14457
▁idleness	-14458
▁idolator	-14459
▁immature	-14460
▁impaling	-14461
▁improved	-14462
▁inclosed	-14463
▁incommun	-14464
▁inconsid	-14465
▁increase	-14466
▁indebted	-14467
▁industry	-14468
▁ineffect	-14469
▁insulted	-14470
▁jewelled	-14471
▁joyously	-14472
▁junction	-14473
▁kindness	-14474
▁lighting	-14475
▁loftiest	-14476
▁magnific	-14477
▁marriage	-14478
▁meetings	-14479
▁membrane	-14480
▁mentally	-14481
▁metaphys	-14482
▁methodic	-14483
▁minutest	-14484
▁miseries	-14485
▁misunder	-14486
▁moderate	-14487
▁monument	-14488
▁morality	-14489
▁mounting	-14490
▁mourning	-14491
▁muteness	-14492
▁mutineer	-14493
▁mutually	-14494
▁narrowly	-14495
▁objected	-14496
▁obscured	-14497
▁outlines	-14498
▁outright	-14499
▁overtake	-14500
▁particle	-14501
▁passions	-14502
▁persuade	-14503
▁pinioned	-14504
▁pitiable	-14505
▁populous	-14506
▁portable	-14507
▁portions	-14508
▁pregnant	-14509
▁pricking	-14510
▁procured	-14511
▁projects	-14512
▁prophesy	-14513
▁prophets	-14514
▁province	-14515
▁psalmody	-14516
▁purplish	-14517
▁pyramids	-14518
▁quackery	-14519
▁queerest	-14520
▁rainbows	-14521
▁realized	-14522
▁recovery	-14523
▁recurred	-14524
▁rejoined	-14525
▁remarked	-14526
▁resigned	-14527
▁resource	-14528
▁restless	-14529
▁restored	-14530
▁restrain	-14531
▁retiring	-14532
▁retreats	-14533
▁scanning	-14534
▁scholars	-14535
▁scornful	-14536
▁screwing	-14537
▁seasoned	-14538
▁secluded	-14539
▁security	-14540
▁seething	-14541
▁shameful	-14542
▁sharkish	-14543
▁shifting	-14544
▁shocking	-14545
▁skrimsha	-14546
▁slanting	-14547
▁slumbers	-14548
▁smacking	-14549
▁smelling	-14550
▁snapping	-14551
▁snatches	-14552
▁snuffing	-14553
▁snugness	-14554
▁soldiers	-14555
▁solitude	-14556
▁solution	-14557
▁spacious	-14558
▁sprained	-14559
▁stabbing	-14560
▁streamed	-14561
▁sturgeon	-14562
▁sunwards	-14563
▁supplies	-14564
▁surgical	-14565
▁surmises	-14566
▁suspects	-14567
▁swelling	-14568
▁sympathe	-14569
▁teaching	-14570
▁tempered	-14571
▁threaten	-14572
▁thunders	-14573
▁ticklish	-14574
▁tingling	-14575
▁topsails	-14576
▁towering	-14577
▁trailing	-14578
▁twitched	-14579
▁umbrella	-14580
▁unabated	-14581
▁unbroken	-14582
▁unerring	-14583
▁unheeded	-14584
▁unmistak	-14585
▁unsavory	-14586
▁untoward	-14587
▁unwaning	-14588
▁vanished	-14589
▁variable	-14590
▁verbally	-14591
▁vertebra	-14592
▁vibrated	-14593
▁vigilant	-14594
▁villains	-14595
▁warnings	-14596
▁warriors	-14597
▁weighing	-14598
▁westward	-14599
▁whispers	-14600
▁wildness	-14601
▁withered	-14602
LibreTexts	-14603
especially	-14604
ompromised	-14605
rusenstern	-14606
▁Albatross	-14607
▁Alexander	-14608
▁Amsterdam	-14609
▁Certainly	-14610
▁Cleopatra	-14611
▁Different	-14612
▁Hampshire	-14613
▁Icelandic	-14614
▁Mythology	-14615
▁Procopius	-14616
▁Suspended	-14617
▁Tuileries	-14618
▁Whereupon	-14619
▁Worcester	-14620
▁accompany	-14621
▁admeasure	-14622
▁administr	-14623
▁advisable	-14624
▁aggregate	-14625
▁agonizing	-14626
▁alleviate	-14627
▁alternate	-14628
▁ambitious	-14629
▁amplified	-14630
▁anomalies	-14631
▁appetites	-14632
▁architect	-14633
▁arguments	-14634
▁assembled	-14635
▁assistant	-14636
▁associate	-14637
▁attribute	-14638
▁awakening	-14639
▁balancing	-14640
▁barbarous	-14641
▁barnacled	-14642
▁benefited	-14643
▁bestirred	-14644
▁brilliant	-14645
▁candidate	-14646
▁capsizing	-14647
▁castaways	-14648
▁certainty	-14649
▁cheerless	-14650
▁chiselled	-14651
▁clergyman	-14652
▁companion	-14653
▁comprises	-14654
▁concealed	-14655
▁confluent	-14656
▁conquered	-14657
▁contented	-14658
▁conversed	-14659
▁creations	-14660
▁crouching	-14661
▁deadliest	-14662
▁deceptive	-14663
▁delicious	-14664
▁delivered	-14665
▁democracy	-14666
▁depresses	-14667
▁descrying	-14668
▁desperado	-14669
▁devouring	-14670
▁dictating	-14671
▁discerned	-14672
▁discovers	-14673
▁dismember	-14674
▁displaced	-14675
▁distantly	-14676
▁districts	-14677
▁disturbed	-14678
▁dominated	-14679
▁duplicate	-14680
▁educators	-14681
▁effective	-14682
▁efficient	-14683
▁elevating	-14684
▁embracing	-14685
▁employing	-14686
▁enveloped	-14687
▁estimated	-14688
▁excepting	-14689
▁exclusive	-14690
▁exhibited	-14691
▁expatiate	-14692
▁facetious	-14693
▁favorable	-14694
▁ferocious	-14695
▁firmament	-14696
▁fisheries	-14697
▁fixations	-14698
▁fleetness	-14699
▁forbidden	-14700
▁forthwith	-14701
▁fragments	-14702
▁frightful	-14703
▁fundament	-14704
▁furnishes	-14705
▁gathering	-14706
▁glistened	-14707
▁gravitate	-14708
▁greenness	-14709
▁guarantee	-14710
▁hilarious	-14711
▁hostility	-14712
▁hundredth	-14713
▁hurricane	-14714
▁imaginary	-14715
▁immovable	-14716
▁incapable	-14717
▁incarnate	-14718
▁incipient	-14719
▁indicated	-14720
▁ineffable	-14721
▁ingenious	-14722
▁injustice	-14723
▁inserting	-14724
▁insertion	-14725
▁institute	-14726
▁isinglass	-14727
▁knowingly	-14728
▁labyrinth	-14729
▁landscape	-14730
▁libidinal	-14731
▁loadstone	-14732
▁lowermost	-14733
▁ludicrous	-14734
▁maelstrom	-14735
▁malignity	-14736
▁manhandle	-14737
▁mastering	-14738
▁materials	-14739
▁miserably	-14740
▁momentary	-14741
▁mouthfuls	-14742
▁murdering	-14743
▁mustering	-14744
▁neighbors	-14745
▁nocturnal	-14746
▁notorious	-14747
▁objective	-14748
▁oblongata	-14749
▁occurring	-14750
▁opportune	-14751
▁outermost	-14752
▁perdition	-14753
▁performed	-14754
[...]
